#version: 0.2
n g</w>
n g
n h
_ t
c h
t h
n _
n h</w>
k h
t r
ng _
p h
i ệ
i _
g i
_t h
t _
nh _
q u
ê n</w>
ư ờ
i ế
v à</w>
ớ i</w>
c ủ
á c</w>
củ a</w>
c _
ư ợ
_t r
ô ng</w>
u y
u _
o ng</w>
m _
l à</w>
ạ i</w>
i ề
T h
c ác</w>
ượ c</w>
c ó</w>
c h</w>
đ ược</w>
à y</w>
tr ong</w>
ư ớ
a _
ch o</w>
m ộ
v ới</w>
ấ t</w>
o _
đ ã</w>
h o
ng ườ
i ể
T r
ư ơ
ng h
ì nh</w>
mộ t</w>
kh ông</w>
â n</w>
i ê
ngườ i</w>
ữ ng</w>
N g
y _
n ă
à o</w>
a y</w>
iệ n</w>
a n</w>
h à
iề u</w>
ầ n</w>
nh ững</w>
ô ng_
ướ c</w>
ế n</w>
i ên</w>
ng _t
a ng</w>
o à
ườ ng</w>
u ố
n ày</w>
đ ộ
C h
đ ể</w>
ả i</w>
p _
ứ c</w>
a i</w>
ậ n</w>
kh i</w>
â n_
v ề</w>
ũ ng</w>
ô i</w>
c á
nă m</w>
đ ị
r a</w>
đ ến</w>
n _t
2 0
a u</w>
đ ầ
P h
â y</w>
a nh</w>
ù ng</w>
e o</w>
l à
i nh</w>
v ào</w>
c ũng</w>
à _
đ ó</w>
tr ên</w>
a o</w>
nh iều</w>
á n</w>
ấ t_
t ại</w>
iệ c</w>
đ ồ
s ẽ</w>
t ừ</w>
ph á
N h
_ h
ươ ng</w>
ơ n</w>
_th ể</w>
v iệc</w>
ố ng</w>
b ị</w>
a m</w>
u ộ
ạ n</w>
ộ i</w>
iế t</w>
l ại</w>
ậ t</w>
c o
à nh</w>
ư ng</w>
á ng</w>
ự c</w>
ụ c</w>
nh ư</w>
ph ải</w>
kh o
h ọ
ò n</w>
b ả
ấ y</w>
ằ ng</w>
ế t</w>
s ố</w>
iế n</w>
20 1
a n
ư a</w>
_ l
ng ày</w>
đ ạ
i nh_
ượ ng</w>
ờ i</w>
ch í
iệ t_
n ước</w>
s ự</w>
đị nh</w>
i n</w>
là m</w>
n _th
ổ i</w>
độ ng</w>
a n_
ì nh_
a nh_
ch uy
iệ u</w>
iê n_
ẫ n</w>
t iế
u ng_
ư ở
N am</w>
ô ng_t
_ nh
đ ố
_ s
_ d
ự c_
d ự
uộ c</w>
u _t
c òn</w>
ă n_
ả n_
h ơn</w>
qu y
b á
c ó
e r
c ả
c ông_
ò ng</w>
h iện</w>
ậ p</w>
ch ỉ</w>
ươ ng_
nh ưng</w>
a r
b iết</w>
ưở ng</w>
đ ang</w>
đồ ng</w>
u ng</w>
V iệt_
gi ả
à ng</w>
ấ p</w>
s au</w>
ngh iệ
K h
th ì</w>
s á
_ ch
v iên</w>
ụ ng</w>
ch iế
ng _th
l o
hà ng</w>
m ới</w>
c ơ
đ i</w>
Việt_ Nam</w>
m ạ
i ễ
à i</w>
a o_
nh ất</w>
i _t
ú c</w>
ế t_
ế _
t u
kh á
à nh_
iể m</w>
r ất</w>
a m_
c ầ
ệ n</w>
G i
qu a</w>
x u
ă n</w>
iể n</w>
ê n_
c ùng</w>
í ch</w>
v ụ</w>
m à</w>
m ình</w>
c _t
có _thể</w>
á i</w>
ơ i</w>
0 0</w>
i n
họ c</w>
h ợ
ữ a</w>
l u
th eo</w>
Q u
đầ u</w>
n ó
t ổ
ờ i_
nh à</w>
c ả</w>
ị ch</w>
Q uố
ă ng</w>
co n</w>
l ớ
n ên</w>
e m</w>
a l
ừ ng</w>
ho ạ
iề n</w>
ặ t</w>
i_ d
gi a</w>
oà n</w>
d o
gi á</w>
iệ t</w>
â y_
gi á
th ực_
n_ đ
â m</w>
ch _
ề n</w>
Ng uy
t ôi</w>
đầ u_t
nh ận</w>
ả ng</w>
oà i</w>
ỉ nh</w>
ô n</w>
ắ c</w>
tr ước</w>
t ố
ng _tr
h iệ
i _th
đ iểm</w>
ch ú
l ên</w>
v ậ
đ á
đ ây</w>
ườ ng_
t à
c ao</w>
i a</w>
nghiệ p</w>
v ẫn</w>
m á
t ới</w>
đ ề
ả n</w>
b ộ</w>
th áng</w>
ồ i</w>
th ành_
Th eo</w>
ắ t</w>
n ay</w>
ọ ng</w>
l ượng</w>
h ai</w>
ạ o</w>
v ì</w>
â u</w>
ấ u</w>
th ời_
kh ác</w>
à n</w>
qu an</w>
đ iề
ế u</w>
d o</w>
h ọ</w>
c ấp</w>
cá ch</w>
b ạn</w>
r ằng</w>
a m
í nh</w>
ứ ng</w>
e n
ồ ng</w>
H à_
lớ n</w>
M ỹ</w>
qu ố
nh _t
ứ c_
_tr ường</w>
ị _
e _
ê m</w>
ó ng</w>
chí nh</w>
nh _th
nó i</w>
d iễ
o r
ố i</w>
o n
Tr ong</w>
x e</w>
Nguy ễ
ắ ng</w>
nh à_
s ử
t uy
ướ ng</w>
Nguyễ n_
u a</w>
t i
ọ i</w>
t ỉnh</w>
c ông</w>
nă ng</w>
ầ n_
mộ t_
ng uy
ủ _t
đ ường</w>
gi an</w>
1 9
nh ân</w>
ỗ i</w>
b ằng</w>
l ần</w>
ch ưa</w>
t _tr
t ì
y ê
Tr ung_
hà nh</w>
n ào</w>
c_ s
đ ộ</w>
c uộc</w>
ả nh</w>
qu ả</w>
gi ới</w>
c ô</w>
h ay</w>
s ản_
_ch ức</w>
nh _tr
H o
ẩ m</w>
p _t
à n_
o n</w>
a_ đ
á t</w>
h uy
th ấy</w>
ú t</w>
v ực</w>
h ạ
Quố c</w>
dự _
ặ c</w>
cầ u</w>
c ông_t
ỏ i</w>
ấ n</w>
ạ i_
A nh</w>
ắ n</w>
l ý</w>
a i_
á c_
iể u</w>
n_ l
u _th
ả o</w>
ộ i_
ặ c_
hợ p</w>
ph ạ
th am_
c ần</w>
_d ụng</w>
ự _
đ ưa</w>
_nh iên</w>
dự ng</w>
h ình</w>
thực_ hiện</w>
e l
tr iệu</w>
th iế
T uy
b ệ
tổ _chức</w>
sử _dụng</w>
e n</w>
đị a_
đố i_
. 0
ồ n</w>
th u
B ộ</w>
ph ần</w>
N ội</w>
ph ẩm</w>
bá o</w>
ơ n_
e s
ừ a</w>
T ổ
uố n</w>
Hà_ Nội</w>
n _tr
đạ o</w>
kh iến</w>
a y_
t iền</w>
m ặt</w>
â u_
qu y_
th ị
_h ội</w>
g ần</w>
ắ c_
t_tr iển</w>
ho á</w>
ây_ dựng</w>
ph ố</w>
. .
phá t_
ủ _
ướ c_
đầu_t ư</w>
ph ụ
ằ m</w>
độ i</w>
á i_
i _tr
r a
ể n</w>
tu ổi</w>
v ị</w>
b u
u ật</w>
th ế_
kho ảng</w>
hoạ t_
a ng_
i m</w>
â m_
ậ p_
iệ m</w>
t ăng</w>
ử a</w>
đề u</w>
th ứ</w>
u _tr
.0 00</w>
ổ _
i l
thời_ gian</w>
nh ân_
cơ _
hoạt_ động</w>
xu ất</w>
gi ờ</w>
b iệt</w>
ă ng_
g h
phá t_triển</w>
b án</w>
c ứ
gi ú
ng_tr ình</w>
e r</w>
ọ n</w>
u_ h
diễ n</w>
.. .</w>
H oà
a_ s
bả n</w>
b ất_
é p</w>
ú ng</w>
ph òng</w>
V ăn_
ư ới</w>
1 0</w>
đ ất</w>
tà i_
b à</w>
tr ở
vậ y</w>
iê u</w>
ư _
d ân</w>
ng oài</w>
điề u_
ậ t_
nh au</w>
lo ại</w>
hà nh_
g ây</w>
x ã</w>
k ết_
x ây_dựng</w>
uố ng</w>
xu ất_
k i
d ùng</w>
C ông_
ẹ p</w>
a_đ ình</w>
th êm</w>
l ã
Ả nh</w>
ý _
m ang</w>
b ên</w>
chí nh_
d ụng</w>
ă m</w>
ấ n_
qu an_
ố n</w>
ả i_
ậ u</w>
C ác</w>
gi ữa</w>
u_ vực</w>
huy ện</w>
ứ ng_
m uốn</w>
g ì</w>
đồ ng_
ho ặc</w>
t ừng</w>
Ch í
quy ền</w>
á nh</w>
m _tr
chiế c</w>
sá ch</w>
Tuy _nhiên</w>
a s
ệ _th
ông_t in</w>
mạ nh</w>
sá t</w>
ạ c</w>
t o
ạ ng</w>
o_ d
ặ p</w>
ho à
đ o
t a</w>
t í
k iể
khá ch</w>
gi a_đình</w>
s ống</w>
l iên_
o ng_
kh u_vực</w>
ộ t</w>
é t</w>
ô _
c_t ế</w>
tr uy
t ình_
giú p</w>
n ữ</w>
S au</w>
bả o_
r i
i_d ân</w>
giả m</w>
ả ng_
phá p</w>
ố i_
t iê
ắ t_
b ố</w>
Ng a</w>
ỷ _
ó ng_
ọ c</w>
k inh_
chú ng_t
ch í</w>
a o
t in</w>
b ay</w>
Trung_ Quốc</w>
v ừa</w>
là m_
ả y</w>
_ kh
Ô ng</w>
n ơi</w>
tố t</w>
dự_ án</w>
cá o</w>
ở i</w>
ch u
N D</w>
một_ số</w>
đ ẹp</w>
cứ u</w>
đ iều</w>
m ua</w>
u_ cầu</w>
ầ u</w>
m ức</w>
m ẹ</w>
r ồi</w>
ặc_ biệt</w>
i t
chuy ện</w>
g ó
tr ẻ</w>
do anh_
s inh</w>
ù a</w>
í a</w>
a n_t
p_t ục</w>
ố c</w>
ngườ i_dân</w>
20 0
n ếu</w>
Ng h
ạ nh</w>
quố c_
ph ủ</w>
t ỷ</w>
th uộc</w>
ả _
ó m</w>
e s</w>
giả i_
đối_ với</w>
đầu_t iên</w>
m ô
k iện</w>
ắ m</w>
mạ ng</w>
ấ n_đ
a c
ph ương</w>
v ăn_
tiế p_tục</w>
ì n</w>
ầ m</w>
nh_t ế</w>
đạ t</w>
th ông_tin</w>
tr ận</w>
i d
d ị
1 0
th ông_
ợ i</w>
thế_ giới</w>
d ẫn</w>
r o
H C
má y</w>
/ 201
gi ữ</w>
ch i
t ạo</w>
th i</w>
oà n_
đ iệ
ngh ị</w>
l ập</w>
qu á</w>
ng u
ê _
s ao</w>
đ ổi</w>
đ oàn</w>
ng o
gi ải</w>
ch ị</w>
đ ơn_
Quố c_
ạ t</w>
k ỳ</w>
m ỗi</w>
T P
uố i</w>
tham_ gia</w>
ch ỉ
cá i</w>
à u</w>
m ọi</w>
k ết</w>
k iến</w>
ấ p_
phạ m</w>
h ộ</w>
e t
kh ó
b iển</w>
hoạ ch</w>
ấn_đ ề</w>
l i
quy_ định</w>
U S
doanh_ nghiệp</w>
ườ i</w>
b àn</w>
tr ường</w>
đá nh_
ản_ lý</w>
u_ l
v ệ</w>
u ận</w>
đ ấu</w>
T u
kh ai</w>
ủ_t ịch</w>
ch ọn</w>
qu ân</w>
ấ m</w>
s ản</w>
thành_ phố</w>
ph ía</w>
thiế t_
ộ ng</w>
ph í</w>
ặ ng</w>
Nh ững</w>
T ôi</w>
g ái</w>
ng ành</w>
ươ ng_trình</w>
chuy ển</w>
l úc</w>
ả nh_
đ ủ</w>
s o
t _th
b ắt_
k iế
chuy ên_
ô n_
b ao_
ạ y</w>
ết_ định</w>
sản_ xuất</w>
à i_
v ấn_đề</w>
bệ nh</w>
H ồ
t ên</w>
á p</w>
gi ả</w>
đ ả
kh ông_
b ởi</w>
á o</w>
ch ủ</w>
nh ỏ</w>
thị _trường</w>
x ã
s inh_
ã i</w>
ệ_th ống</w>
m ắt</w>
b ỏ</w>
h ội</w>
ki nh_tế</w>
kh ẩ
lu ôn</w>
US D</w>
đề _
v iện</w>
v ật</w>
í t</w>
g ặp</w>
yê u</w>
n ó</w>
N hà
ó n</w>
T P</w>
ượ t</w>
hà ng_
quy ết</w>
điề u_tr
ng _thể</w>
đ ặc_biệt</w>
t ậ
công_t y</w>
v ốn</w>
đạ i_
x ử
s ự_
M ột</w>
Th anh_
iế ng</w>
n ữa</w>
kh ô
á ch</w>
tì m</w>
a d
s o</w>
k é
t _t
U B
iê ng</w>
s áng</w>
đ á</w>
ch ủ_
i s
_s ở</w>
g ọi</w>
ồ m</w>
2 0</w>
ph im</w>
a t
_l ý</w>
công_t ác</w>
kh ả_
i c
đ ặt</w>
th o
ẳ ng</w>
uy ên</w>
iể n_
xã _hội</w>
t ự
Ch ủ_tịch</w>
ư ỡ
ng ay</w>
u ng_t
th ể
chu ẩ
d ù</w>
ắ p</w>
qu ản_lý</w>
l ực</w>
_ M
h ưởng</w>
Kh i</w>
_th ành</w>
H u
tiê u_
quốc_ gia</w>
g ồm</w>
C ông_t
_nh ân</w>
h ệ_thống</w>
ch ất</w>
h ỗ
x ảy</w>
Đ ại_
a y
Th u
độ ng_
ch á
ó c</w>
b iến</w>
s u
o o
m _th
iệ n_
iế p</w>
UB ND</w>
h ình_
t ác_
đo ạn</w>
ố _
khả_ năng</w>
cả nh</w>
b a</w>
Gi á
_tr ợ</w>
a g
th ương_
n ước_
ch ương_trình</w>
gi ao</w>
ứ a</w>
n ộ
quy ết_định</w>
a_s ẻ</w>
ho a</w>
truy ề
_tr ọng</w>
sản_ phẩm</w>
Chí nh_
k ể</w>
nh óm</w>
c ứ</w>
HC M</w>
v ùng</w>
bá o_
Ph ó</w>
_tr ình</w>
ẳ ng_
ố ng_
cơ_ quan</w>
đ iện</w>
nh ằm</w>
d ưới</w>
l ấy</w>
ch ất_
hợ p_
m ất</w>
l ời</w>
t er
c uộ
à o_
ph ép</w>
Công_t y</w>
ạ ch</w>
kh á</w>
ch ống</w>
kh u</w>
khô ng_thể</w>
nghiệ m</w>
y _t
bả o</w>
k ý</w>
ngu ồn</w>
â n_t
co n_
b óng</w>
iể u_
ặ t_
o u
Đ ây</w>
chúng_t ôi</w>
yê u_cầu</w>
t oàn_
Th ị_
ĩ nh_
ch ơi</w>
địa_ phương</w>
u_ quả</w>
ực_ lượng</w>
ừ a_
b é</w>
nh_ đạo</w>
đ úng</w>
Đ ức</w>
1 2</w>
I n
do anh</w>
m ùa</w>
_ c
chi a_sẻ</w>
qu á
d ịch</w>
h ệ</w>
ộ ng_
xử _lý</w>
Nhà _
th i_
s ang</w>
o l
ĩ a</w>
hỗ _trợ</w>
ung_t âm</w>
t iề
_ L
h ã
à y_
l ư
má y_
ph ục</w>
Nh ưng</w>
t ính</w>
r õ</w>
m a
c àng</w>
x uống</w>
nh_th ức</w>
trở _thành</w>
ẫ u</w>
th ành</w>
Hoà ng_
ủ ng_
_th ế</w>
ô m</w>
đơn_ vị</w>
h ỏi</w>
x em</w>
ủ_t ướng</w>
iế u</w>
t ay</w>
iê n_t
o _t
_ r
hiệ n_
m_tr a</w>
m inh</w>
qu ân_
ạ m</w>
th ường</w>
L ê_
ọ c_
ch ế</w>
ậ n_
N ếu</w>
_nh iệm</w>
u_l ịch</w>
liên_ quan</w>
Tr ần_
Chính_ phủ</w>
đố i_t
1 1</w>
iên_ cứu</w>
_s inh</w>
X u
th ay_
a_ học</w>
đố c</w>
nh ập</w>
_th ông</w>
d ài</w>
v àng</w>
qu ận</w>
Ng ày</w>
ợ p</w>
v òng</w>
ch ung</w>
V ới</w>
l e
làm_ việc</w>
h ết</w>
o s
n ổ
m ụ
V iệt</w>
đ ường_
3 0</w>
á ch
ất_ cả</w>
ươ ng_t
c ổ_
Th ủ_tướng</w>
_tr í</w>
x ác_
o ại</w>
qu an
s ắc</w>
v ị
lu ật</w>
tr ường_
ngh ệ</w>
_kh ăn</w>
tậ p
l oài</w>
ạ n_
l ợ
khẩ u</w>
ng_th ống</w>
trở _
kinh_ doanh</w>
ch ồng</w>
ộ _
lã nh_đạo</w>
l iệu</w>
khó _khăn</w>
ả o_
ph ản_
r e
c ây</w>
ch ức_
kh ó</w>
quố c_tế</w>
bệ nh_
h ướng</w>
quan _trọng</w>
b an</w>
cơ _sở</w>
Tổ ng_
d a</w>
TP .</w>
B ình_
phát_ hiện</w>
n ằm</w>
ạ m_
i _trường</w>
V N</w>
l ực_lượng</w>
á p_
a l</w>
v u
c ạnh</w>
kiể m_tra</w>
v ô_
tr iển_
u s
đ êm</w>
đ à
cả m</w>
V i
phụ _
h u
ng_th ời</w>
Ng ười</w>
dị ch_
h iệu</w>
v ọng</w>
_h ợp</w>
đả m_
tr ự
Th ái_
n_ bộ</w>
n â
c ô
Tr ước</w>
B ình</w>
s ức_
m ẫu</w>
đ áng</w>
giá m_
ú c_
c uối</w>
cả m_
ế_ hoạch</w>
b iểu</w>
d ân_
v i</w>
ò ng_
kho a_học</w>
ă m_
d _
kh ỏi</w>
ngh ĩ</w>
c _th
_tr ưởng</w>
ngh iên_cứu</w>
p _th
ế n_
K i
tiế ng</w>
tà u</w>
th ự
S ơn</w>
c_s inh</w>
th í
m àu</w>
n_ s
ử i</w>
k ế</w>
ưỡ ng</w>
c ung_
ao _thông</w>
a_ h
vậ n_
ù ng_
ậ m_
ng ân_
bảo_ vệ</w>
t ương_
ch ết</w>
v i_
triển_ khai</w>
n e
x e
nh ìn</w>
r iêng</w>
1 2
b ài</w>
n am</w>
d ành</w>
201 7</w>
d ự</w>
uy _
l òng</w>
T T
ch iều</w>
Công_ an</w>
ch ạy</w>
h iểu</w>
ch ân</w>
v ợ</w>
th u</w>
ảnh_ hưởng</w>
tr ang_
nh iệ
ẳng_ định</w>
hiệ u_quả</w>
nh_tr ạng</w>
i r
k ỹ
N e
ch ứng_
ch o_
o án</w>
s ức</w>
đ ứng</w>
kh ẳng_định</w>
đánh_ giá</w>
th uố
H ải_
điều_tr a</w>
L iên_
họ c_sinh</w>
5 0</w>
n u
chỉ _
T ại</w>
t e
_tr ị</w>
a p
t ự</w>
chú ng</w>
tu ần</w>
d u_lịch</w>
ao_ động</w>
diễ n_
Nh ật_
ỷ _l
bu ổi</w>
nh ạc</w>
cả nh_
chất_ lượng</w>
s ân_
ầ u_
n_t ại</w>
ng ờ</w>
ch âu_
ú _
v ài</w>
Ng ọc_
t ất_cả</w>
phá p_
ph ân_
H iệ
L an</w>
kết_ quả</w>
ô i_
an_t oàn</w>
Tổ ng_thống</w>
ữ u</w>
xuất_ hiện</w>
ộ c</w>
c ực</w>
thời_ điểm</w>
x e_
ồ ng_
s ố
dịch_ vụ</w>
S ở</w>
T ừ</w>
N am_
đ ẩ
ch _s
g ửi</w>
bắt_ đầu</w>
gi ao_
ng ày_
i_d iện</w>
lu ận</w>
b an_
uy ền</w>
lớ p</w>
l e</w>
c ử
đảm_ bảo</w>
ị u</w>
ph út</w>
thay_ đổi</w>
Qu ảng_
1 /
l ộ</w>
tì nh_trạng</w>
u_th ủ</w>
d uy
ch ủ
x ét</w>
ể n_
cá n_bộ</w>
iế n_
d anh_
đ ời</w>
1 8
nhiệ m_
hoà n_t
B ắc_
tiế p_
h ại</w>
kho ản</w>
truyề n_th
điều_ kiện</w>
R e
phụ_ nữ</w>
m _t
B ản</w>
201 6</w>
trường_ hợp</w>
k ế_hoạch</w>
ch ức</w>
ú i</w>
iề u_
ư_ vậy</w>
_tr ung</w>
H ội_
n ạn</w>
quan_ hệ</w>
hình_ ảnh</w>
l ửa</w>
chức_ năng</w>
khá ch_
phụ c_
_d o</w>
gi ống</w>
mô i_trường</w>
đối_t ượng</w>
nguy ên_
cá _nhân</w>
kiể m_
Đ iều</w>
y ếu</w>
D ương</w>
thành_ công</w>
o_d ục</w>
u ỷ</w>
N ăm</w>
ngh iê
_l ực</w>
b ắt</w>
cung_ cấp</w>
đ ôi</w>
H L
m ôn</w>
nă ng_
ớ i_
tổ ng_
0 %</w>
A n</w>
in e</w>
T ây_
B an</w>
hoà n_th
hiện_ nay</w>
cầ u_thủ</w>
0 .000</w>
ấn_ công</w>
b ình</w>
th u_h
ngườ i_
v iết</w>
c_s ống</w>
201 8</w>
vị _trí</w>
k í
m iền</w>
tr ai</w>
oà i_
t ấn_công</w>
ớ m</w>
trự c_t
d i_
c_s ĩ</w>
ở _h
Đ ông</w>
Ph áp</w>
Kh ông</w>
so át</w>
HL V</w>
nh à
ngh ĩa</w>
m ại</w>
gi ao_thông</w>
Nh iều</w>
ệ _
ế p</w>
máy_ bay</w>
u r
ở i_
văn_ hoá</w>
tiế n_
ách _nhiệm</w>
tuy ến</w>
ụ _thể</w>
ệ t</w>
M inh_
1 5
h ạn</w>
ề n_
giá _trị</w>
l ễ</w>
h ồ
đ ông</w>
công_ nghệ</w>
ậm_ chí</w>
b ổ
phạ t</w>
i m
i_d ung</w>
1 .
è o</w>
su ất</w>
ngh ề</w>
u m
ngh e</w>
v ũ
l ý
p p
oài_ ra</w>
nâ ng</w>
s ớm</w>
giá o</w>
ầ ng</w>
k ê
anh_ ch
Gi ang</w>
_ v
n iên</w>
T o
ẩ m_
quá _trình</w>
kiế m</w>
th ấp</w>
x uyên</w>
tr ách_nhiệm</w>
v ượt</w>
v ấn</w>
c ăn_
n_th oại</w>
giải_ quyết</w>
ph ù
khách_ hàng</w>
c a</w>
đá nh</w>
s ông</w>
_th uật</w>
kho ẻ</w>
ụ _
Nhật_ Bản</w>
c ư</w>
l iên_t
d iện</w>
th ường_
b ình_
ẻ _
p_t ác</w>
t ăng_
Đ ể</w>
uy ện</w>
nh anh</w>
x a</w>
tr ung_
tiến_ hành</w>
m u
m ở</w>
an_t âm</w>
chuẩ n_
vi_ phạm</w>
Vi et
tập _trung</w>
đ àn_
s e
1 5</w>
cuộ c_sống</w>
Ng oài_ra</w>
á nh_
ph ối_
chí nh_thức</w>
phá t</w>
thành_ viên</w>
H àn_
b ước</w>
S y
ph á</w>
19 9
thiết_ kế</w>
th u_
e b
thiế u</w>
x in</w>
ĩ nh</w>
ẩ n</w>
m ối</w>
hoàn_t oàn</w>
Giá m_
c_t iêu</w>
nguy ên</w>
chính_ sách</w>
e l</w>
ch ịu</w>
Ph ạm_
C ó</w>
tr ả</w>
l ao_động</w>
chúng_t a</w>
c ường</w>
đồ ng_thời</w>
s ân</w>
o m
h ội_
Đ à_
K ỳ</w>
đ ảo</w>
Xu ân_
nu ôi</w>
h ì
Ch ú
Đ ông_
í _
qu an_tâm</w>
ĩnh_ vực</w>
n inh</w>
phối_ hợp</w>
m ở
nộ i_dung</w>
đ ất_
Th ành</w>
b o
b óng_
c á</w>
Th ành_
b à
nước_ ngoài</w>
n_ giả</w>
i s</w>
1 ,
k ị
c âu</w>
nh ập_
l ĩnh_vực</w>
ã o</w>
ô _t
V iệc</w>
ậ y</w>
th ật</w>
là ng</w>
ph ương_
hợ p_tác</w>
cơ _hội</w>
a _t
B ộ
Hồ _
A n
t a
ệ nh</w>
ố t</w>
địa_ bàn</w>
th ầ
kh í</w>
n_t ượng</w>
x anh</w>
đầ y</w>
thể _h
Nhà_ nước</w>
_th ị</w>
tiế t_
ph iếu</w>
chá u</w>
c ử</w>
b uộc</w>
n ông_
Tr ường</w>
độ c_
m ón</w>
Đ T</w>
c ao_
nhiệm_ vụ</w>
thuố c</w>
công_ việc</w>
i_t iếng</w>
uố t</w>
cô ng_trình</w>
ch i_
đ ô
n ặng</w>
nh iên</w>
t âm_
s a
d òng</w>
i ng
L e
ặ n</w>
ch iến</w>
phục_ vụ</w>
đ ăng_
o_t ạo</w>
u ổi</w>
Hàn_ Quốc</w>
báo_ cáo</w>
quố c</w>
h át</w>
ơ _
t ừ
nhân_ dân</w>
gi ành</w>
a v
hã ng</w>
kh u
tì m_
c ố</w>
thể_h iện</w>
tài_ sản</w>
ệ t_
họ c_
khá n_giả</w>
A r
ph ường</w>
th ích</w>
chuẩn_ bị</w>
đề_ nghị</w>
phù _hợp</w>
đ ơn</w>
chuy ến</w>
gi ai_
_ S
á o_
nh ất_
đ óng</w>
đ ỏ</w>
iệ n_t
r ia</w>
n_th ân</w>
mụ c_tiêu</w>
x úc</w>
đạ i_diện</w>
ở_h ữu</w>
nổ i_tiếng</w>
M ar
ô m_
_ vậy</w>
B ên</w>
bả ng</w>
v ợ
chỉ_ đạo</w>
ạ c_
tr ình_
V ũ
tuy ên_
pháp_ luật</w>
đẩ y</w>
qu ay</w>
đ âu</w>
uố i_
n ền</w>
T iên</w>
kh a
U ỷ_
h ồi</w>
ý_ kiến</w>
ấ u_
v ừa_
th a
m ặt_
201 5</w>
ỏ ng</w>
th ế</w>
ch ỗ</w>
b iên_
u s</w>
thự c_tế</w>
công_ bố</w>
đị nh_
tr ọ
ng ôi</w>
thu ế</w>
V à</w>
lo ạt</w>
kh uy
v a
Â u</w>
chuyên_ gia</w>
ả _th
tiề n_
Chú ng_t
r a_
ch ứng</w>
c ơ</w>
Sy ria</w>
l ị
trực_t iếp</w>
_s ĩ</w>
hợp_ đồng</w>
l ự
ẵ ng</w>
hành_ vi</w>
nh ờ</w>
tr ung_tâm</w>
d ễ</w>
qu anh</w>
bất_ ngờ</w>
sức_ khoẻ</w>
ê u</w>
nh ư_vậy</w>
ch ứ</w>
xác_ định</w>
điệ n_thoại</w>
ướ ng_
giá o_dục</w>
1 6
b ộ_
trở_ lại</w>
ọ t</w>
u n
ô ng_th
Đ ến</w>
ch_s ử</w>
giai_ đoạn</w>
chuẩ n</w>
a b
ngân_ hàng</w>
ư u_
Giám_ đốc</w>
ê n_t
đố i</w>
tr ánh</w>
C ô</w>
đ ồ</w>
ch ế_
H ải</w>
N ẵng</w>
Ph òng</w>
Quốc_ hội</w>
ạ p</w>
th ắng</w>
ho ạ</w>
tăng_ cường</w>
1 4
P ho
a e</w>
uối_ cùng</w>
iện_t ích</w>
ng_ l
nh_tr ị</w>
Bộ _trưởng</w>
Đ ảng</w>
s ẵ
A l
gh i_
Đà_ Nẵng</w>
T N
B ắc</w>
hạ ng</w>
nh ận_
gó p_
iê m</w>
n iệm</w>
ch ăm_
kh ủng_
th anh_
thương_ mại</w>
a_ chọn</w>
n e</w>
ụ p</w>
h ồ</w>
thiết_ bị</w>
c _tr
an_ ninh</w>
C ục</w>
x o
C òn</w>
3 0
H à</w>
số _l
giá o_
nhân_ viên</w>
t ập_
C u
c ửa</w>
c ũ</w>
R o
đ ề</w>
á m</w>
l âu</w>
nh u_cầu</w>
v ăn</w>
nh ớ</w>
ph ần_
1 7
th ủ_
thường_ xuyên</w>
ch ung_
a k
ị nh</w>
K ho
m ộ</w>
d iện_tích</w>
lợ i_
diễn_ viên</w>
L i
c ộng_
h ộ
lự a_chọn</w>
ng ồi</w>
má u</w>
L ong</w>
l o_
đà o_tạo</w>
th ậm_chí</w>
chiế m</w>
ho à</w>
n ối</w>
qu án</w>
i l</w>
bao_ gồm</w>
iế t_
nó ng</w>
chính_ quyền</w>
1 00</w>
c ố_
k m</w>
th e
sinh_ viên</w>
nh ư
ặc_ dù</w>
ĩ _
an d
đàn_ ông</w>
thông_ qua</w>
ph ong_
chá y</w>
h ôm</w>
thông_ báo</w>
ch ỉnh</w>
_tr ì</w>
n ợ</w>
họ p</w>
a r</w>
kiểm_ soát</w>
t o</w>
đ ô</w>
Ne w
i_t iết</w>
ả _l
tr a
một_ cách</w>
r ừng</w>
ph òng_
t ử
hoàn_th ành</w>
v ai</w>
ao _t
đ óng_
1 3
D ự_
có _
Tr ung_tâm</w>
đ a_
m ưa</w>
không_ chỉ</w>
B à</w>
_ ý</w>
ượ ng_
t ên_
ư _l
ù i</w>
ch ẳng</w>
t oàn</w>
Ki m_
ụ_ việc</w>
r ộng</w>
s uốt</w>
cá nh</w>
1 -
u l
ch ấ
Đ ó</w>
C ũng</w>
ậ m</w>
gó p</w>
Hồ ng_
thi_ đấu</w>
kh ởi_
Ph á
ả_l ời</w>
m ắc</w>
tuyên_ bố</w>
V ề</w>
ế t_th
ch _th
tr ưởng</w>
bóng_ đá</w>
th ờ
thí _sinh</w>
d u_
o_d ài</w>
đô _thị</w>
b ức</w>
ộ t_
ỹ _
ạn_ nhân</w>
m ong_
c âu_
lị ch_sử</w>
k _
ng ủ</w>
_s ơ</w>
tr ở</w>
kỹ _thuật</w>
t ự_
chuy ển_
thu ê</w>
ch ụp</w>
ch i</w>
iê u_
d i
T ân_
Ho à</w>
chiế n_th
hạ n_
d ầu</w>
a_s ĩ</w>
s t
hành_ động</w>
ch ia</w>
s âu</w>
Đ ồng_
d ân_t
vậ t_
i_tr ò</w>
i_th ác</w>
thị t</w>
L o
s ở_hữu</w>
b iện_
qu ý</w>
ương_t iện</w>
M inh</w>
thực_ phẩm</w>
ổ n_
m ục</w>
_c ơ</w>
v ay</w>
tổ ng</w>
â n_th
gh i</w>
iề m</w>
th iệt_
tài_ chính</w>
ữ u_
Ph ú_
g ốc</w>
p i
ngh ệ_th
c ổ</w>
ag u
Tr iều_
Tr ung</w>
m inh_
ph ương_tiện</w>
k g</w>
b ì
ã n</w>
ngh ệ
dị p</w>
thu_h út</w>
ư u</w>
ngày_ càng</w>
tình_ hình</w>
T ết</w>
va i_trò</w>
c uối_cùng</w>
tí ch_
ch ữa</w>
L uật</w>
cộng_ đồng</w>
u y</w>
kha i_thác</w>
2 5
2 3</w>
Trung_ ương</w>
H ai</w>
đ ổ</w>
ạ o_
d ạng</w>
h ậ
Qu ang_
x ử</w>
biện_ pháp</w>
201 0</w>
b ị_
_M inh</w>
tr ồng</w>
gi ác</w>
t on</w>
đăng_ ký</w>
tr ước_
l á</w>
gi ấ
giải_ pháp</w>
ké m</w>
ự u</w>
gi ớ
ì _vậy</w>
liên_t ục</w>
í _th
T ây</w>
M o
ổn_ định</w>
ngo ại_
tích_ cực</w>
ủng_ hộ</w>
ệ nh_
cơ _thể</w>
nguyên_ nhân</w>
bá c_sĩ</w>
áp_ dụng</w>
tí nh_
tr ái</w>
A n_
th ống_
l ượt</w>
4 0</w>
Nguy ên</w>
s i
hồ _sơ</w>
ng ại</w>
Triều_ Tiên</w>
đị ch</w>
d ạy</w>
n úi</w>
kho a</w>
t ai_
J o
n ạn_nhân</w>
l ai</w>
iễ m</w>
M i
v ẻ</w>
L oài</w>
n ỗ
ỳ _
ầ m_
quân_ sự</w>
M a
ồ n_
thực_ sự</w>
nó i_
ô_t ô</w>
co i</w>
x ung_
truyền_th ống</w>
ứ t</w>
bả n_thân</w>
1 6</w>
th ăm</w>
ch ắn</w>
kh úc</w>
tr ẻ_
_ch ồng</w>
Chúng_t ôi</w>
ó i</w>
tố i_
an d</w>
T ài_
c ụ</w>
c ục</w>
t ầm</w>
nguy _cơ</w>
tr ang</w>
c_ độ</w>
e d
vừa_ qua</w>
y ế
ắ p_
v ụ_việc</w>
con_ người</w>
n i
châu_ Âu</w>
chú _ý</w>
201 4</w>
n_t ử</w>
s ư</w>
T H
bệnh_ viện</w>
L u
ư ng_
S u
ho á
h a</w>
_th ao</w>
ch ấp_
Ng o
19 8
b iểu_
C o
toàn_ bộ</w>
thành_ lập</w>
ch ứa</w>
tr ái_
Ng u
anh_ch óng</w>
1 8</w>
a_h ậu</w>
õ i</w>
c ấp_
cử a_
B ar
on al
ph úc</w>
kho á</w>
c a_sĩ</w>
nh anh_chóng</w>
ngh ỉ</w>
L inh</w>
N inh</w>
b i
tr ắng</w>
giả i_th
d ừng</w>
nỗ _lực</w>
h ôm_
Kh ông_
5 00</w>
hạn_ chế</w>
H ội</w>
sự_ kiện</w>
đầ u_
uy ển</w>
_r ộng</w>
giao_ dịch</w>
sá ng_t
chi_ phí</w>
Hồ_ Chí
S h
s _
ư _d
l a
nh_ m
b ại</w>
_t u
tên_ lửa</w>
Hồ_Chí _Minh</w>
oo k</w>
ch ục</w>
Ngh ị_
ữ _
điều_tr ị</w>
d ễ
b inh</w>
Tr um
u ng_th
H ọ</w>
ứng_ dụng</w>
D ũng</w>
cho_ phép</w>
vu i</w>
s óc</w>
ao_ đổi</w>
ch ợ</w>
t ấn</w>
nh_th ần</w>
đố i_th
bao_ giờ</w>
Th e_
th ời</w>
H iện</w>
x ác</w>
c ụ_thể</w>
ph ận</w>
cả m_th
2 5</w>
cuộ c_
th ẩm_
ỷ_l ệ</w>
công_ nghiệp</w>
r út</w>
đất_ nước</w>
id eo</w>
_s ung</w>
m_tr ọng</w>
bả n_
bệnh_ nhân</w>
1 9</w>
chí nh_trị</w>
tr ả_lời</w>
số_l ượng</w>
n êu</w>
Th anh</w>
đ ứa</w>
l o</w>
iễ n_
t ă
P ar
mở _rộng</w>
xe m_
th ế
Ho a_
on e</w>
t ặng</w>
Trum p</w>
ngh èo</w>
B an_
n iềm</w>
ho à_
lý _do</w>
vũ _kh
ờ _
ỉ _
n ổi</w>
Tu ấn</w>
ụ c_
chiến_th ắng</w>
l a</w>
Nguyễn_ Văn_
agu e</w>
ngh ìn</w>
iể m_
Đ H</w>
Ph ương_
b ang</w>
c ận</w>
Đ ược</w>
_h ình</w>
b ắn</w>
nhà_ nước</w>
n_l ợi</w>
v i
ne t</w>
bổ _sung</w>
cảnh_ sát</w>
ớ t</w>
ch ờ</w>
ti nh_thần</w>
B ảo_
th ất_
nhất_ là</w>
ò i</w>
nh_ phúc</w>
đ ích</w>
chủ_ yếu</w>
v é</w>
tai_ nạn</w>
i_th iệu</w>
tà u_
quân_ đội</w>
lư u_
c ắt</w>
c ưới</w>
1 4</w>
đá p_
đ ón</w>
_t ưởng</w>
vô_ cùng</w>
ph o
m ời</w>
N o
chiế n_
ké o_dài</w>
ạ ch_
đ en</w>
to à</w>
ợ t</w>
Vũ _
điệ n_tử</w>
1 3</w>
m à_
Q uy
t ập</w>
giả n</w>
e n_
chăm_ sóc</w>
m ấy</w>
Đ ộ</w>
t ư_
vợ _chồng</w>
Ch âu</w>
6 0</w>
b ao</w>
P T</w>
n ổ</w>
cảm_th ấy</w>
Ch ỉ</w>
ặ ng_
giớ i_thiệu</w>
Ngu ồn</w>
ẫ n_
d ần</w>
ới_ đây</w>
ph iên</w>
ho àn_
s ợ</w>
Đại_ học</w>
Ph an_
độ c</w>
Ch iế
tí n_
é o</w>
m ô</w>
D N</w>
b ật</w>
kinh_ nghiệm</w>
m ặc</w>
hã y</w>
S E
dự_ kiến</w>
góp_ phần</w>
đạ o_
2 .
ả_th uận</w>
ph óng</w>
Nguyễn_ Thị_
à u_
D ù</w>
n ội_
C P</w>
hạ nh_phúc</w>
trẻ_ em</w>
r ơi</w>
công_ an</w>
nh ấn_
nghệ_th uật</w>
v er
c a_
qu en</w>
h ôn</w>
c ậu</w>
ườ n</w>
y_t ế</w>
2 4
đ a</w>
Thái_ Lan</w>
n_đ ại</w>
n_l ược</w>
ết_th úc</w>
qu ê</w>
n_th ức</w>
c ười</w>
Ng ay</w>
ề _
Uỷ_ ban</w>
m ật</w>
c ộng</w>
dân_t ộc</w>
Ấ n_
đ em</w>
hiệ n_tại</w>
đáp_ ứng</w>
g a</w>
câu_ chuyện</w>
th à
đ ua</w>
Ph ương</w>
tr ăm</w>
e m
nguy _h
n _trường</w>
tố i</w>
iề n_
iên_ bản</w>
h ướng_
tương_ lai</w>
Tr ên</w>
nh_tr a</w>
quy_ hoạch</w>
ề m</w>
tìm_ kiếm</w>
S ơn_
ổ i_
c ặp</w>
th ôi</w>
nhà_ đầu_tư</w>
d anh</w>
ó t</w>
ng_tr ưởng</w>
C L
õ _r
2 ,
in a</w>
H ùng</w>
C ó
v ùng_
t ỉ</w>
ẹ n</w>
nhập_ khẩu</w>
í_th ư</w>
trở_ nên</w>
ủ_t ục</w>
ự a</w>
S a
as h
tham_ dự</w>
cho_ hay</w>
2 1</w>
gi a_
chính_ phủ</w>
t ỷ_lệ</w>
x ếp</w>
ã y</w>
tố c_độ</w>
tr ao</w>
2 -
hiệ n_đại</w>
hành_ chính</w>
In ter
nh_t oán</w>
k ia</w>
tuy ệt_
e c
du_ khách</w>
200 9</w>
v ệ
b ờ</w>
1 7</w>
ỏ _
_ch ế</w>
trang_ bị</w>
qu ảng_
n_t ải</w>
đầ y_
T S</w>
xuất_ khẩu</w>
ắc_ chắn</w>
ú a</w>
M ột_
g ắng</w>
đ ại</w>
2 3
văn_ bản</w>
Đ ặc_biệt</w>
nhấn_ mạnh</w>
b ão</w>
Ho á</w>
ượ c_
b er
l ương</w>
ấ u_h
k ra
s ạch</w>
t er</w>
Đ ức_
đả m</w>
tă ng_trưởng</w>
_th ức</w>
tiế p</w>
i g
vu i_
t ạm</w>
á y</w>
ắ n_
è m</w>
Pho ne</w>
c ổ
b ạc</w>
nghiê m_trọng</w>
I I</w>
n_s àng</w>
báo_ chí</w>
đ au</w>
V ì</w>
ra_ mắt</w>
th ủ_tục</w>
giám_ sát</w>
đại_ học</w>
ac eb
TT X
_ C
k iểu</w>
h y_
U kra
Nh ân_
tố t_
bì nh_th
khuy ến_
x ong</w>
xem_ xét</w>
tho ả_thuận</w>
r ời</w>
n_th iết</w>
hì nh_thức</w>
H ương</w>
sẵ n_sàng</w>
t ình</w>
20 0</w>
Ấn_ Độ</w>
mà_ còn</w>
Cu p</w>
ộ n</w>
kh ắc_
nă m_
lư u</w>
có_ mặt</w>
kết_ hợp</w>
Th ế_
ắ ng_
truyề n_
V ĩnh_
m ừng</w>
điều_ chỉnh</w>
c ấm</w>
Ch ính</w>
I S</w>
g à</w>
l iền</w>
mạ nh_m
B ệnh_
ấ n_tượng</w>
hoạ t</w>
r ượ
ch ở</w>
gi ấy</w>
v iệ
h ết_
thanh_ niên</w>
Th ời_
s iêu</w>
u n</w>
M al
201 1</w>
19 7
l ắm</w>
uộ t</w>
nguy_h iểm</w>
ỳ nh_
mạnh_m ẽ</w>
kh ối</w>
giáo_ viên</w>
C ùng</w>
_l iệu</w>
k ẻ</w>
b è</w>
đề_ xuất</w>
ế _t
TTX VN</w>
aceb ook</w>
đ ặ
ph óng_
nghệ _sĩ</w>
ng ăn_
gi ó</w>
P a
Th ế</w>
s ai_
t ấm</w>
s on</w>
B ạn</w>
s ắp</w>
Ng ân_
s ong</w>
l ệnh</w>
C ảnh_
đị a</w>
đơn_ giản</w>
2 4</w>
h ải_
cơ_ quan_
s ắt</w>
ấ t_th
il i
á ng_
m àn_
uy ền_
m i
ư u_t
cầ n_thiết</w>
V inh</w>
ké o</w>
ay_ m
H Đ
ngo ại</w>
cố_ gắng</w>
đ ọc</w>
t ồ
mong_ muốn</w>
_t ế</w>
xe_ máy</w>
đ ỡ</w>
Tr ang</w>
Th u_
é t_
ph ó</w>
ì _thế</w>
SE A
mô _t
Ho a_hậu</w>
Tr ưởng</w>
thị _tr
_th ương</w>
v ào_
sân_ bay</w>
k ỷ_l
vũ_kh í</w>
T C</w>
s óng</w>
b ầu</w>
B í_thư</w>
ch ắc_chắn</w>
chiế n_lược</w>
ph a</w>
T V</w>
6 /
đầy_ đủ</w>
Đ ồ
c uốn</w>
ư_d ân</w>
tình_ cảm</w>
Đ oàn</w>
bị_ cáo</w>
T V
Nh a</w>
b ia</w>
b ị
iễ n</w>
vô_ địch</w>
Ng oài</w>
ng ắn</w>
H ồ</w>
chú t</w>
ch ặn</w>
5 %</w>
bình_th ường</w>
G òn</w>
S ài_
V N
è n</w>
ph ân_t
điều_ hành</w>
id ae</w>
độ t_
hướng_ dẫn</w>
l y
t ươ
s uy_
dễ _d
in es</w>
l ẫn</w>
đại_ biểu</w>
bảo_ đảm</w>
2 /
i_t uyển</w>
b ồ
k ết_thúc</w>
nh ẹ</w>
th ay</w>
Hiệ p_
t ạ
ơn_ nữa</w>
s ai</w>
h ề</w>
r õ_r
2 2</w>
ph iên_bản</w>
chiế n_đ
m ềm</w>
2 7
m ar
8 /
c ăn</w>
Đ ình_
x ấu</w>
k ê</w>
M ặc_dù</w>
cổ_ phiếu</w>
ư a_
Tr ường_
nhà _th
u_t ố</w>
c à_
xuất_ sắc</w>
th ử
CL B</w>
h ạ</w>
I r
tr ời</w>
thể _thao</w>
độ i_
201 3</w>
ơ m</w>
V iện</w>
d ẫn_
ế t_t
L ong_
cầ m</w>
C am
qu à</w>
t ầng</w>
k ính</w>
Đ ối_
201 2</w>
n_th ương</w>
b ãi</w>
đ ợt</w>
H ưng</w>
iệ u_
nh iệt_
B áo</w>
g ắn</w>
ầ u_h
duy _trì</w>
Sài_ Gòn</w>
_l ẽ</w>
ây_ giờ</w>
í t_
m 2</w>
phương_ án</w>
n ửa</w>
r u
ngân_ sách</w>
iế m</w>
thương_ hiệu</w>
D o
ương_t ự</w>
ạ nh_tr
W or
ngh i</w>
dễ_d àng</w>
m ái</w>
ầu_h ết</w>
k ỷ</w>
o_d õi</w>
ạnh_tr anh</w>
P V</w>
c_ làm</w>
A nh_
ma _tu
tác_ phẩm</w>
ma_tu ý</w>
n ắm</w>
d a
_ B
th úc_
ư_l uận</w>
C N
M e
TP HCM</w>
thà nh_t
dự a</w>
Gi a_
D o_
giám_ đốc</w>
nh ắc</w>
n_l ực</w>
yế u_tố</w>
ti n_
_v ong</w>
uy ến</w>
mụ c_
Y _tế</w>
đối_th ủ</w>
ph án</w>
l ạ</w>
truyền_th ông</w>
tử _vong</w>
Dự_ án</w>
T T</w>
i Phone</w>
chấp_ nhận</w>
b í_
L ý_
Ph úc</w>
t ư
thu_ nhập</w>
l ậ
ù i_
an k</w>
b ậ
khủng_ bố</w>
mô _hình</w>
thu ậ
iê m_
v ững</w>
hàng_ hoá</w>
Hu ế</w>
C ụ_thể</w>
cơ_quan_ chức_năng</w>
đ e
Qu ang</w>
k ỷ_
Th ủ_
the o_dõi</w>
ỉ nh_
ạn_ bè</w>
tuy ển</w>
đ ợi</w>
A T
T ập_
hạ t_
C á
hà i_
or e</w>
c ơn</w>
Bệnh_ viện</w>
minh_ hoạ</w>
mục_ đích</w>
danh_ sách</w>
0 ,
x i
p u
l ối</w>
l ạnh</w>
ôi_ sao</w>
d ữ
b àn_
l ái</w>
l ợi</w>
li p</w>
_ m
ng àn</w>
C ơ_
đóng_ góp</w>
s úng</w>
nhà_ máy</w>
đ a
ừ ng_
t ờ</w>
th ôn</w>
nộ p</w>
tiêu_ dùng</w>
h âm_
M ỗi</w>
thực_ vật</w>
Ch ị</w>
C S
r au</w>
c_t ập</w>
nông_ nghiệp</w>
tiế p_th
tr ao_đổi</w>
Ph ong</w>
hôm_ nay</w>
c ạnh_tranh</w>
r o</w>
tự _t
sự_ nghiệp</w>
ạ t_
nhân_ vật</w>
giú p_
ng ữ</w>
ng ầm</w>
Qu ân_
vận_ động</w>
B á
h ấp_
Th ắng</w>
Nh ật</w>
Ho a</w>
n ét</w>
l ỗi</w>
D o</w>
ban_ hành</w>
s ho
tác_ động</w>
Ukra ine</w>
tự _nhiên</w>
it y</w>
n_tr ọng</w>
việ c_làm</w>
S ự</w>
v ideo</w>
h ơi</w>
_nh ất</w>
l d_
b ố
ch ắc</w>
k ích</w>
mô_t ả</w>
ph ổ_
f or
kết_ nối</w>
thúc_ đẩy</w>
à ng_
th ừa_
t ội_
t iểu_
ng_th ức</w>
c ựu</w>
thiệt_ hại</w>
b ạn_bè</w>
hấp_ dẫn</w>
2 9
n_tr anh</w>
d ưỡng</w>
_t ầng</w>
ệ n_
ụ t</w>
hàng_ đầu</w>
th ị_
d ư_luận</w>
_h ệ</w>
n àng</w>
c ân_
. v
a ng
a s</w>
kh ai_
kh ổ</w>
ũ i</w>
c am_
Một_ số</w>
ban_ đầu</w>
cửa_ hàng</w>
M ai</w>
S e
Tr ương_
nh_th ành</w>
chế_ độ</w>
d ây</w>
hâm_ mộ</w>
t y</w>
không_ gian</w>
b ào</w>
bất_ cứ</w>
Nguy ên_
ê n_tr
ch àng</w>
s ữa</w>
quy ề
ả m_
Cảnh_ sát</w>
duy _nhất</w>
C ao_
Kh ánh_
th ua</w>
0 -
s ia</w>
bá nh</w>
năng_ lực</w>
tho át</w>
A pp
thi_ công</w>
c e
Đối_ với</w>
phân_t ích</w>
ể _
tr ụ
X H</w>
iế u_
ay_m ắn</w>
tr anh</w>
iệ p</w>
tr anh_
o ạ</w>
ng_ cấp</w>
màn_ hình</w>
C ar
đ ấ
ngh ĩ
Hội_ nghị</w>
F acebook</w>
ễ _hội</w>
nhận_ định</w>
k èm</w>
gi a_t
3 00</w>
thị_tr ấn</w>
Ngân_ hàng</w>
d áng</w>
M ai_
th ử</w>
n_đ ổi</w>
tr ạm</w>
h út</w>
v ườn</w>
ung_th ư</w>
ho àng</w>
l iệt</w>
b ầu_
sáng_t ạo</w>
r an
ã ng</w>
p_th ời</w>
Bình_ Dương</w>
th ân</w>
l ũ</w>
d ấu_h
cầ u_
Hoà _
ch ữ</w>
Tập_ đoàn</w>
rượ u</w>
kh ấu</w>
chiến_đ ấu</w>
cơ_ bản</w>
C ộng_
thế _hệ</w>
chủ_ động</w>
V ụ</w>
n ỗi</w>
biên_ giới</w>
u_ đ
b ày</w>
trước_ đây</w>
ch i_tiết</w>
_ Đ
khắc_ phục</w>
am a</w>
n es
a z
v ỡ</w>
V ào</w>
Ngh ệ_
G D
lợi_ ích</w>
4 5</w>
rõ_r àng</w>
ch ậm</w>
en t
m ê</w>
D ương_
o n_
_L e
Đ ịnh</w>
âm_ nhạc</w>
x ét_
tình_ yêu</w>
bậ c</w>
w e
g ỡ</w>
Kh u</w>
tiết_ lộ</w>
i_th iện</w>
tiêu_ chuẩn</w>
B H
xung_ quanh</w>
phổ_ biến</w>
kị p_thời</w>
g ỗ</w>
kh iển</w>
kh í
I s
1 /201
Ch âu_
t ỷ_
S N</w>
Thanh_ Hoá</w>
l ắng</w>
bo m</w>
n a</w>
7 0</w>
3 5</w>
cảnh_ báo</w>
khá m</w>
n_s ĩ</w>
co m
ướ p</w>
ch a</w>
má y_t
G T</w>
họ c_tập</w>
vệ _sinh</w>
App le</w>
ph ê</w>
đo ạt</w>
c ao_t
3 ,
x ây</w>
Đ ồng</w>
H ữu_
y_t ỏ</w>
B ra
nổ i_
x ứ</w>
m ã</w>
ph ụ</w>
ậ u_
E m</w>
S t
K ết_
h iểm</w>
quan_ điểm</w>
dấu_h iệu</w>
ẳ n</w>
ố_ mẹ</w>
í n</w>
cả i_thiện</w>
g ấp</w>
b ỏ_
v a</w>
sự_ việc</w>
kh ảo</w>
ông_th ôn</w>
gi àu</w>
ý_ nghĩa</w>
năng_ lượng</w>
t ại_
N ó</w>
căn_ hộ</w>
e ra</w>
t óc</w>
il l
giả i_tr
6 -
Đồ ng_thời</w>
chiế u</w>
đ uổi</w>
khu ôn_
thầ y</w>
Nghệ_ An</w>
t e</w>
s ơ
Hội_ đồng</w>
quy_ mô</w>
ch ú</w>
cam_ kết</w>
đ i_
Phá t_
s àn</w>
i_tr ang</w>
L úc</w>
ng ôi_sao</w>
bà y_tỏ</w>
ấ n_l
qu ên</w>
_ G
kh ắp</w>
V in
l âu_
c ây_
u m</w>
phóng_ viên</w>
u_h ướng</w>
hy_ vọng</w>
6 ,
C ách</w>
ạ y_
đồng_ ý</w>
ời_ sống</w>
mạ c</w>
3 -
Ph ili
di_ chuyển</w>
k o
ằ ng_
_d oạ</w>
kh ắc</w>
b ăng</w>
s en
é m</w>
động_ viên</w>
sá ng_
X ây_dựng</w>
ạ nh_
Ch i_
cổ_ phần</w>
a_đ ời</w>
lu ật_
b iể
ù m</w>
ti n_t
ay _thế</w>
c ực_
Hoà ng</w>
nh ật</w>
tiếp_ cận</w>
An d
m iễn_
V ì_vậy</w>
Y ên</w>
ngh i_
điều_ khiển</w>
ca_ khúc</w>
t ái</w>
thế_ nào</w>
toàn_ cầu</w>
sự_ cố</w>
B ùi_
ưở ng_
c ập</w>
b ữa</w>
tồ n_tại</w>
Ngo ại_
bá n_
bị _thương</w>
Xu ân</w>
S áng</w>
B o
phong_ cách</w>
tr ải</w>
h ẳn</w>
th ay_thế</w>
nh uận</w>
t ội</w>
châu_ Á</w>
đe _doạ</w>
động_ sản</w>
s h
th iên_
ạ _
tuy ển_
trung_ bình</w>
đ ảng</w>
Ng ọc</w>
khá ch_s
A F
ứ _
xe _t
ứ c_t
khách_s ạn</w>
Th ổ_
S am
k iệm</w>
ị nh_
đo án</w>
Ng ườ
độ i_tuyển</w>
cảm_ giác</w>
hàng_ loạt</w>
C ường</w>
al ia</w>
Ng ô_
phản_ ánh</w>
ă ng_t
T iế
chung_ kết</w>
m ay_mắn</w>
qu ỹ</w>
ặ t_tr
thừa_ nhận</w>
New _
Nh ĩ_
gh ế</w>
tối_ đa</w>
Cơ_ quan</w>
T .
r ác</w>
tr ị_
xác_ nhận</w>
8 0</w>
kỷ_ niệm</w>
Tài_ chính</w>
t ương_tự</w>
ó c_
a_ mẹ</w>
ph ê
phát_ biểu</w>
C on</w>
ng ừng</w>
â m_th
gia_t ăng</w>
_t ính</w>
b ối_
ng on</w>
ổi_ mới</w>
qu ần_
m e
Qu a</w>
n ông_thôn</w>
V ân</w>
thờ i_trang</w>
Quốc_ gia</w>
ì m</w>
iệ ng</w>
h è</w>
như _th
Đ ạ
se a</w>
_ P
vận_ chuyển</w>
uy ết</w>
l ạc</w>
kho án</w>
Hải_ Phòng</w>
m ơ</w>
ợ _
căn_ cứ</w>
ghi_ nhận</w>
ậ t_t
thống_ nhất</w>
_ nghiệm</w>
3 .
M an
b ây_giờ</w>
tr ò
Inter net</w>
đá m</w>
c ứng</w>
5 0
đối_t ác</w>
truyền_ hình</w>
p_t ức</w>
th ân_
khá m_
gi à</w>
tự _do</w>
i_th ường</w>
a h
Ir an</w>
b à_
am e</w>
chính_ xác</w>
hiệ n_trường</w>
quảng_ cáo</w>
a nh_th
C ả</w>
S ing
dân_ số</w>
ch ặt</w>
thông_ minh</w>
_Le ague</w>
tr ú</w>
TH PT</w>
Ph i</w>
n_th ông</w>
con_ số</w>
hạt_ nhân</w>
s ĩ</w>
b ò</w>
M .
đá o</w>
ng ang</w>
t ung</w>
ng ũ</w>
sân_ khấu</w>
Th iên_
à m</w>
tiết_ kiệm</w>
u ter
d ục</w>
máy_t ính</w>
Thổ_ Nhĩ_
4 .
công_ khai</w>
bu ồn</w>
thu_h ồi</w>
hoàn_th iện</w>
Wor ld_
Mal ay
c e</w>
B a</w>
tìm_ hiểu</w>
ít_ nhất</w>
C an
thuậ n_lợi</w>
Thành_ phố</w>
H ar
c ân</w>
ó i_
Ch el
phát_ hành</w>
ế_ nào</w>
Thổ_Nhĩ_ Kỳ</w>
L âm</w>
c o</w>
l an</w>
ầ y</w>
ng ã</w>
H àng</w>
nh iệm</w>
200 8</w>
cơ m</w>
gó i</w>
lậ p_tức</w>
b ố_mẹ</w>
công_ nhân</w>
x ưa</w>
hạ t</w>
Phili pp
ph ân</w>
e t</w>
m ã
trang_ phục</w>
t ổ</w>
đ ương</w>
p o
a w
gi ọng</w>
m a</w>
iê u_t
x ế</w>
Malay sia</w>
tuy _nhiên</w>
es s
như_th ế_nào</w>
b ụng</w>
t ay_
h ầu_hết</w>
điệ n_
Th uận</w>
kê u_
i n_
vậ n_tải</w>
ỗ _
bất_ kỳ</w>
trị_ giá</w>
t ỏ</w>
ầ u_t
ă ng_th
tư_ vấn</w>
không_ khí</w>
ph ối</w>
ên_tr uyền</w>
V õ
ph ú</w>
trọ ng_t
D i
x inh_
thủ_ đô</w>
Nh ư</w>
c ấ
s âu_
Đ ầu_t
tiề m_
Th ông_tin</w>
thành_t ích</w>
n o
_h ậu</w>
lợi_ nhuận</w>
H H</w>
hu y</w>
ã m</w>
l ên_
hết_ sức</w>
kê nh</w>
biể u_t
d e
t an</w>
nh_tr ình</w>
Chel sea</w>
d e</w>
kh ô</w>
ương_ mặt</w>
Hoa_ Kỳ</w>
m ãi</w>
c lip</w>
m ay</w>
ng_th ái</w>
l ịch</w>
n am_
phương_ pháp</w>
_ động</w>
đ ặc_
hu ấn_l
lo ạn</w>
m àn</w>
tội_ phạm</w>
Th ái</w>
b ức_
E U</w>
hội_ nghị</w>
chuyên_ môn</w>
Th ơ</w>
n ắng</w>
t inh_
chiến_ dịch</w>
hành_ khách</w>
b iến_
ch ạm</w>
r ẻ</w>
ph i_
i_ suất</w>
cà_ phê</w>
Tu ấn_
bối_ cảnh</w>
trọ ng_
nguy ện</w>
m_ phán</w>
đ ổi_mới</w>
ế p_
A SEA
t iến</w>
giúp_ đỡ</w>
T e
ch _hợp</w>
kêu_ gọi</w>
m iệng</w>
a ti
b ền_
bất_ động_sản</w>
Sing ap
gi ết</w>
G TV
đ ời_sống</w>
lo_ lắng</w>
ngo ái</w>
k inh</w>
i k
ú p</w>
iêu_t ả</w>
cá ch_
cả ng</w>
nông_ dân</w>
anh_th u</w>
T ĩnh</w>
uy ệt</w>
e z</w>
cơ _chế</w>
mạ ch</w>
_tr ang</w>
ự _th
Singap ore</w>
é n</w>
c ú</w>
lo ại_
đ ai</w>
thu ỷ
cả i_t
ăng_th ẳng</w>
H iện_
f f
kí ch_th
m iêu_tả</w>
_ án</w>
đà m_phán</w>
tương_ đương</w>
d ám</w>
GTV T</w>
dữ _liệu</w>
h uống</w>
5 -
In do
th ú_
B ộ_
Thu ỷ</w>
nh iễm</w>
đ ỉnh</w>
Tổ _chức</w>
D ân_
kh ảo_
L âm_
kết_ luận</w>
tiê u_th
quan_ chức</w>
ạ i_tr
uy nh</w>
động_ cơ</w>
áp_ lực</w>
ộ c_
v ua</w>
x âm_
k ỳ
h ơn_nữa</w>
bắt_ giữ</w>
cao_ cấp</w>
ch ảy</w>
n on</w>
T ùng</w>
ườ ng_tr
ng -
nh iêu</w>
như _thế</w>
Ch ương_trình</w>
kh ích</w>
gi ỏi</w>
Không_ chỉ</w>
đẩ y_
tuy ên_truyền</w>
ướ c_t
Ar sen
đ ập</w>
ợ i_
Tây_ Ban_
ặ p_
19 6
1 .000</w>
Qu ản_lý</w>
t ô</w>
_tr ương</w>
Tây_Ban_ Nha</w>
2 7</w>
chế_ biến</w>
ASEA N</w>
b ắc</w>
Philipp ines</w>
kiế n_
c ấu</w>
tra ng_tr
G oo
nghĩ a_
địa_ điểm</w>
gó c</w>
C uộc</w>
tha nh_toán</w>
í _d
x u_hướng</w>
TN HH</w>
l ạc_
ữ ng_
P e
ar d</w>
4 ,
2 6</w>
Đ -
huy _động</w>
x óm</w>
Lo an</w>
nh ậ
V ũ</w>
tiếp_th eo</w>
Quốc_ phòng</w>
tiêu_th ụ</w>
c an
Th ương</w>
P o
tha nh_tra</w>
2 8</w>
lã i_suất</w>
ấ t_t
A N
ch ùa</w>
u_th ương</w>
kiến_ nghị</w>
th ẻ</w>
hợp_ lý</w>
khó c</w>
20 20</w>
ng ập</w>
tâm_ lý</w>
el l
thất_ bại</w>
Gi á</w>
đồ ng_t
t ỉ
ật_t ự</w>
phát_ huy</w>
ch ứ
L a_
Do_ đó</w>
g an</w>
T iền_
chiế n_tranh</w>
Tổng_ cục</w>
C ần_
đ ừng</w>
c a
Y ên_
er _
/201 7</w>
S p
Thời_ gian</w>
nes ia</w>
l ao</w>
R i
đ ào</w>
ý t</w>
tác_ dụng</w>
ẫ u_th
nh o</w>
th uy
e d</w>
v ô
Th ứ
ch ẽ</w>
giải_tr í</w>
ch ặt_
Hiện_ nay</w>
đ ạn</w>
chặt_ chẽ</w>
_h uynh</w>
g ạo</w>
á n_
Nghị_ định</w>
tr ật_tự</w>
sinh_ hoạt</w>
c ăng_thẳng</w>
chuy ên</w>
Indo nesia</w>
Quy ết_định</w>
i d</w>
phản_ ứng</w>
ưỡ ng_
nổi_ bật</w>
B a_
i_th ân</w>
ủ ng</w>
quy ết_t
x ếp_
đ ấy</w>
iể n_l
qu ản</w>
đ èn</w>
m ùi</w>
9 0</w>
đố t</w>
ẫu_th uật</w>
tình_ huống</w>
bầu_ cử</w>
do anh_thu</w>
biểu_ diễn</w>
4 -
ụ i</w>
Nh ư_vậy</w>
J u
ph ức_t
liên_t iếp</w>
chuyên_ nghiệp</w>
iển_l ãm</w>
tổng_ số</w>
4 00</w>
m ực</w>
2 9</w>
World_ Cup</w>
phức_t ạp</w>
ph one</w>
m àu_
th ảo_
tậ n_
m ức_
thử _nghiệm</w>
giải_th ưởng</w>
chung_ cư</w>
Đ V</w>
Có _thể</w>
_s ản</w>
F or
ái_ xe</w>
v ỏ</w>
_d uyệt</w>
đạo_ diễn</w>
O b
K inh</w>
x i</w>
tr ông</w>
Thu ỵ
kh ổ
b ốn</w>
ph ong</w>
T âm</w>
/ 11</w>
kh o</w>
tổng_ hợp</w>
đ oàn_
G u
Th ương_
B u
trình_ diễn</w>
m ai</w>
l úa</w>
C N</w>
L à</w>
ac k
ẫ y</w>
chứng_ kiến</w>
c ung</w>
ki m_
y o
Ch i
có _lẽ</w>
M an_
í_d ụ</w>
kho e</w>
m ới_đây</w>
a u
r ửa</w>
Đ ặng_
D uy_
phê _duyệt</w>
th ai</w>
Thứ _trưởng</w>
R onal
Đ inh_
đ ài</w>
B iển</w>
bức_ xúc</w>
ng ược</w>
g ương_mặt</w>
k ịch</w>
5 ,
đá ng_
_h uy</w>
ngăn_ chặn</w>
g le</w>
Hà_ Tĩnh</w>
m o
đồng_ chí</w>
H ồng</w>
giải_th ích</w>
kiế n_thức</w>
B áo_
C T
tự_t in</w>
Ch iều</w>
Re uter
kị p</w>
T iến_
A b
Đ à
á i_t
/ 10</w>
bền_ vững</w>
Kh ánh</w>
c ướp</w>
ường_ như</w>
tài_ khoản</w>
s ứ</w>
t ù</w>
c an</w>
N inh_
ri d</w>
_ch ối</w>
ạ c_sĩ</w>
ch ủ_tịch</w>
k ý_
ng_tr ào</w>
bộ_ phận</w>
Viet nam</w>
Th ảo</w>
tr ộ
ò i_
H ằng</w>
qu ả
hà nh_trình</w>
ăng_t ải</w>
b ếp</w>
H ình_
ph ẫu_thuật</w>
n_đ ộ</w>
k ỳ_
cấp_ cứu</w>
phạ m_
Hiệ n_tại</w>
l ái_xe</w>
cả i_
l ễ_hội</w>
phụ _huynh</w>
Goo gle</w>
Đ ội</w>
t ái_
ù _
G e
Reuter s</w>
ch ị_
L ào</w>
Th áng</w>
tốt_ nghiệp</w>
từ _chối</w>
đ ông_
m ong</w>
i m_
n _thể</w>
đồ n</w>
l ên_t
chuy ể
đ ăng_tải</w>
Hồ i_
d ấu</w>
Võ _
ấ y_
K im</w>
h ữu_
ad a</w>
M ỹ_
đ òi</w>
mức_ độ</w>
hậ u_quả</w>
mu a_
tài_ năng</w>
A le
h ậu</w>
Kết_ quả</w>
ch ó</w>
co n
chủ _trương</w>
g ắn_
G D</w>
ú ng_
Giá o_dục</w>
tiếp_ nhận</w>
C ity</w>
n ão</w>
bả o_t
al i
trái_ phép</w>
oà _án</w>
_ch ơi</w>
ng ọt</w>
ch a_mẹ</w>
năm_ ngoái</w>
ách _thức</w>
vận_ hành</w>
trụ _sở</w>
danh_ hiệu</w>
N N</w>
á m_
v ời</w>
c u
Jo h
b iế
b ột</w>
cuộc_ đời</w>
c k
l y_
nâ ng_cấp</w>
Nh à</w>
bố _trí</w>
S er
Đầu_t ư</w>
H ãy</w>
Chiế c</w>
ải_ nghiệm</w>
đ àn</w>
Arsen al</w>
ng_th ành</w>
ả y_
nhà _trường</w>
ưu_t iên</w>
us tr
lên_t iếng</w>
cảm_ xúc</w>
i ng</w>
m ặc_dù</w>
z il</w>
g u
in i</w>
hoà_ bình</w>
Th ậm_chí</w>
V .
l ưới</w>
v ì_vậy</w>
thảo_ luận</w>
bao_ nhiêu</w>
a -
suy_ nghĩ</w>
D e
đẩy_ mạnh</w>
v iêm</w>
cá t</w>
Ph ú</w>
s ố_
al a
er r
tác_ giả</w>
Hu ỳnh_
s ung</w>
ngườ i_thân</w>
H y
má t</w>
c ô_
B ởi</w>
hiệ n_tượng</w>
x a_
h ương</w>
t ư</w>
hiệ p</w>
ti m</w>
S o
tài_ liệu</w>
b ó</w>
M C</w>
tài_ xế</w>
tr ứng</w>
L ã
nh ượng</w>
ch ào_
Th ực_
đối_ mặt</w>
g ame</w>
tập_ đoàn</w>
bà_ con</w>
xinh_ đẹp</w>
uyền_ hình</w>
hì nh_thành</w>
phần_ mềm</w>
m ũi</w>
hạ _tầng</w>
c am
sức_ mạnh</w>
lợ n</w>
ch ế_t
x ăng</w>
/ 7</w>
1 %</w>
giá p</w>
i_tr ợ</w>
th ân_th
th ư</w>
Is ra
l ưng</w>
diễn_ biến</w>
u_ này</w>
th ưởng</w>
chủ_ đề</w>
Ch i</w>
_h ọc</w>
í ch_
l inh_
Nghị_ quyết</w>
c ố
Qu ân</w>
r ủ
an a</w>
giả ng_
T àu</w>
k e</w>
nh iệt</w>
_nh iễm</w>
thú_ vị</w>
v en</w>
_t iêu</w>
kỹ _
l uyện</w>
Tr ọ
tu s</w>
tình_ dục</w>
c ãi</w>
ì n_
nguy ên_t
thị_ xã</w>
ứ t_
inh_ dưỡng</w>
Isra el</w>
ur o</w>
tr ải_nghiệm</w>
nh ũng</w>
th ức_
d ứt</w>
đ ăng</w>
el _
kinh_ phí</w>
qu ang</w>
ỏ ng_
M ới_đây</w>
thuố c_
đáng_ kể</w>
2 8
T iến</w>
/ 4</w>
Ob ama</w>
hàng_ không</w>
tín_ dụng</w>
V O
B ài</w>
d ậy</w>
T ân</w>
Ronal do</w>
s út</w>
2 %</w>
Cần_ Thơ</w>
Th ọ</w>
en s
kí n</w>
m m</w>
Th a
L Đ</w>
ma r</w>
uộ ng</w>
trự c_th
H .</w>
sẵ n</w>
phản_ đối</w>
tính_ năng</w>
g o
H ương_
chấ n_thương</w>
ad rid</w>
Hồi_ giáo</w>
d iệt</w>
mar t
o _th
Đ ài_
mặt_ hàng</w>
N S
ô _nhiễm</w>
/201 8</w>
à_ soát</w>
chiế m_
6 .
s ở</w>
f an</w>
Quảng_ Ninh</w>
thế_ kỷ</w>
thiế u_
đ âm</w>
hoàn_ cảnh</w>
Đ ảng_
lã ng_
lo_ ngại</w>
đ ẳng</w>
Ngh ĩa</w>
.v n</w>
ph i</w>
tham_ nhũng</w>
A ustr
nhà_ khoa_học</w>
tiền_ đạo</w>
khảo_ sát</w>
n_đ ảo</w>
th ẳng</w>
A s
_ch ất</w>
thờ i_tiết</w>
khá c_
n ấu</w>
thay_ vì</w>
M ô
thống_ kê</w>
r ộng_
th i
r uột</w>
quyết_t âm</w>
Văn_ hoá</w>
công_ nhận</w>
xu ân</w>
Văn_ phòng</w>
/201 6</w>
độc_ đáo</w>
S C
I ra
pho ng_trào</w>
V ậy</w>
/ 9</w>
ho ảng</w>
h ứng</w>
l in
Phá t_triển</w>
v ì_thế</w>
L ộc</w>
D a
th ách_thức</w>
tập _thể</w>
it e</w>
ạ ng_
i_t ích</w>
tiế n_độ</w>
B ả
dự_ báo</w>
to p</w>
V ương_
dân_ cư</w>
S ong</w>
tuyệt_ vời</w>
b ạo_
nh ảy</w>
B e
L ưu_
gi ật</w>
I t
chứng_ minh</w>
7 ,
_ phạt</w>
C ty</w>
a_đ ổi</w>
Hoà i_
t úi</w>
g ặp_
văn_ phòng</w>
D onal
đ ức</w>
Quảng_ Nam</w>
/ 8</w>
bình_ luận</w>
Ira q</w>
N ai</w>
M os
n ội</w>
tươ i</w>
Th ứ</w>
r es
gi ấu</w>
nh_th ổ</w>
d ường_như</w>
T A
m an</w>
/ 5</w>
a_t ay</w>
thiệt_ mạng</w>
A ir
huy ết</w>
/ 6</w>
c ư_dân</w>
Ngoại_ giao</w>
ường_tr ực</w>
ấ m_
Ch am
V F
nh ị
T iểu_
h iến</w>
gi ới_
chứng_ khoán</w>
R a
U 23</w>
Đ ỗ_
quy _trình</w>
P u
y ên</w>
ồn_ gốc</w>
đá p</w>
người_ mẫu</w>
thẩm_ quyền</w>
ý _tưởng</w>
thức_ ăn</w>
d ọc</w>
3 2</w>
r à_soát</w>
v ô_t
Ch o</w>
l ine</w>
H ợ
S a</w>
m uối</w>
t ận</w>
hậ u_
bồ i_thường</w>
kỹ_ năng</w>
s ong_
mua_ bán</w>
p_ chí</w>
th ông_th
tr úng</w>
là n</w>
công_ dân</w>
quy ết_
sử a</w>
nh ánh</w>
o à</w>
v ết</w>
W ash
xử _phạt</w>
ng_l ồ</w>
lã nh_thổ</w>
khổ ng_lồ</w>
Q uy_
ng ôn_
Sam sung</w>
th ảm_
đ ỗ</w>
m ưa_
t or
x ả</w>
nhà_ sản_xuất</w>
_t ín</w>
l ầm</w>
Wash ing
Hu y</w>
m ảnh</w>
sử a_đổi</w>
N ông_
i_th ảo</w>
h ữu</w>
i_ ro</w>
ụ ng_
P C
hồ i_
đội_ ngũ</w>
ược_ lại</w>
giả m_
Đồng_ Nai</w>
d o_
tr ốn</w>
sá t_
C ổ_
n_tr úc</w>
c ỏ</w>
p er
x ương</w>
đ ó
cầ m_
kỷ_l ục</w>
di_ động</w>
T .</w>
f t</w>
lu s</w>
tr ình</w>
kh ối_
h ầm</w>
ổ n</w>
e y</w>
t ường</w>
Đ B
o ả</w>
đạ p</w>
đ ãi</w>
đồ _
đ iệu</w>
Gi ải</w>
T ất_cả</w>
C A
th ép</w>
cam era</w>
ch _l
uố c</w>
Bắc_ Kinh</w>
Nguyễn_ Xuân_
m ỏi</w>
u_th u
Cam pu
v ẽ</w>
N G</w>
D u_lịch</w>
l ô</w>
cổ ng</w>
tiền_ vệ</w>
200 7</w>
truy ền</w>
ớ p</w>
S ố</w>
Thủ_ đô</w>
một_ vài</w>
ngu ồn_gốc</w>
độc_ lập</w>
o f</w>
7 -
công_ suất</w>
y _tr
Bra zil</w>
5 .
v áy</w>
iệ t_th
o p
toàn_ quốc</w>
đ ình_
â ng</w>
cá o_
ri s
ập_ nhật</w>
hộ p</w>
v e</w>
6 %</w>
màu_ sắc</w>
anh_ em</w>
miễn_ phí</w>
m ưu</w>
th ơ</w>
ải_ mái</w>
N ữ</w>
rủ i_ro</w>
Campu chia</w>
giải_ phóng</w>
h ùng</w>
m ật_
giấ y_
v ũ</w>
T ư_
số t</w>
hình_ sự</w>
_th uộc</w>
tố _
B ằng</w>
Y or
đồng_ hồ</w>
chứng_ nhận</w>
tho ải_mái</w>
3 %</w>
h iếm</w>
i_th ế</w>
mart phone</w>
A m
D av
a t</w>
cao_t ốc</w>
c ẩ
e n_th
người_ yêu</w>
t ài</w>
mặt_ bằng</w>
ng ụ</w>
do n</w>
chi a_tay</w>
b éo</w>
E C</w>
u_thu ẫn</w>
Th ượng_
c i
c k</w>
N ói</w>
toàn_ diện</w>
ượ t_
nhà_ hàng</w>
khá ng_
liên_ kết</w>
b inh_
c_tr ò</w>
úc_ nào</w>
gi an_
Tr inh</w>
kỷ_l uật</w>
th ập_
Donal d_
á _
chu ỗi</w>
quốc_ phòng</w>
7 %</w>
19 5
nh i</w>
h ôn_
n ặng_
phần_ lớn</w>
khác_ biệt</w>
tiếp_ xúc</w>
Đ ường</w>
N ội_
am_ mê</w>
l an
x y</w>
t o_
Y o
k iên_
sử a_
kh ung</w>
h ồng</w>
sinh_ sống</w>
l ắp_
g ợi_
b ank</w>
c ỡ</w>
R iêng</w>
chỉ _tiêu</w>
Gi ao_thông</w>
e g
chị_ em</w>
trực_t uyến</w>
Ph ượng</w>
u ỷ_
ẹ t</w>
đường_ sắt</w>
C on
_ H
đa u_
xếp_ hạng</w>
bảo_ hiểm</w>
0 0
l ính</w>
òi_ hỏi</w>
ngoại_ giao</w>
pháp_ lý</w>
k ỹ</w>
8 %</w>
ế u_
_v ẻ</w>
l ỗ</w>
Trọ ng_
d ao</w>
M ou
chuyển_ nhượng</w>
b ài_
_tr ích</w>
quần_ áo</w>
ng ôn</w>
họ c_trò</w>
5 .000</w>
xét_ xử</w>
chí n</w>
r ối</w>
3 6</w>
hà i</w>
Tr ịnh_
ly m
t ô
trình_ độ</w>
sửa_ chữa</w>
tâm_ sự</w>
m ặt_tr
đ òi_hỏi</w>
tu ỳ</w>
gi am</w>
thu ỷ_
3 1</w>
ệ ch</w>
V ì_thế</w>
d inh_dưỡng</w>
c ập_nhật</w>
th ật_
ic o</w>
điện_ ảnh</w>
ngo ạ
N H
th ư_
oo l</w>
Đ ã</w>
te l</w>
nguyên_ liệu</w>
b ộ
đồng_ đội</w>
Tr ước_
ng ực</w>
chấ m_
/ 3</w>
Th ường_
nhiệt_ độ</w>
l úc_nào</w>
H ưng_
i -
tin_t ưởng</w>
h ư
tiềm_ năng</w>
B er
n ém</w>
s martphone</w>
New s</w>
nhậ n_thức</w>
ự ng</w>
đ ền</w>
tr ưa</w>
e z
a_s ắm</w>
huấn_l uyện</w>
ph ò
n_đ àn</w>
d i_tích</w>
s ót</w>
Hoà n_
Austr alia</w>
ã _
Hiệp_ hội</w>
th ơm</w>
th ăm_
công_ chúng</w>
Re al
bổ _nhiệm</w>
on s
chỉ _trích</w>
anh_ch ấp</w>
chỉ_ số</w>
nghiệ p_
c ờ</w>
Le ague</w>
Tha nh_tra</w>
Donald_ Trump</w>
M ẹ</w>
khu ẩn</w>
t ai</w>
I V</w>
kh ở
uy _tín</w>
D ân</w>
ụ m</w>
th ương</w>
ư a
nh ân_t
ph ỏng_
M. U</w>
1 1/
quan_ sát</w>
O lym
Đ T
tr ưng_
Phát_ biểu</w>
v o
động_ vật</w>
cơ_ cấu</w>
we b</w>
cáo_ buộc</w>
Quân_ đội</w>
b ớt</w>
6 00</w>
ị t</w>
tham_ quan</w>
r ắn</w>
đ am_mê</w>
tr eo</w>
H iếu</w>
n ướ
ch ữ
t ôn_
G S</w>
m iếng</w>
F A</w>
New_ Yor
thời_ kỳ</w>
ch ừng</w>
thời_ hạn</w>
ho ang_
nh iễ
ỳ nh</w>
H A
cuộc_ chiến</w>
D u
T ình_
mu a_sắm</w>
th ái_
p in</w>
Qu ỳnh_
k im</w>
địa_ chỉ</w>
i_t ố</w>
Ch ưa</w>
T im
A ng
Nh ân</w>
ếu_ như</w>
nhiệm_ kỳ</w>
V ăn</w>
ẹ o</w>
r ăng</w>
bí_ mật</w>
nói_ chuyện</w>
T ính</w>
y a</w>
tự_ động</w>
ượ n</w>
đ ổ_
nh ẹ
b ước_
L ực_lượng</w>
tr anh_chấp</w>
đ ậm</w>
Hoà_ Bình</w>
s k
U n
khuyến_ khích</w>
. .</w>
_h ào</w>
đ iểm_
n ữ
ự_th ật</w>
Đ ị
nh é</w>
a i
b ạch</w>
W in
sa u_này</w>
Th u</w>
L a</w>
iê u_th
ăn_ uống</w>
c ar
_tr i</w>
am in</w>
cách_ mạng</w>
ề n_t
Th ể
L ai</w>
lã i</w>
khủng_ hoảng</w>
liên_ lạc</w>
ng ừa</w>
thành_ phần</w>
t ôm</w>
c_th ải</w>
l as
S ự_
ói_ quen</w>
tiêu_ chí</w>
b ất_th
M .</w>
Ki nh_tế</w>
b ạ
Cham pi
ch im</w>
vật_ liệu</w>
9 ,
lưu_ ý</w>
cải_ cách</w>
h ồn</w>
M y
th anh</w>
kết_ hôn</w>
á u</w>
ac e
iế p_
B iên_
kỳ_ vọng</w>
4 %</w>
bàn_ giao</w>
s ốc</w>
ắ m_
bá m</w>
dự _th
Giá o_
định_ hướng</w>
M ọi</w>
ền_t ảng</w>
thi_ hành</w>
n_đ ồ</w>
ươ n</w>
k m
Washing ton</w>
n_tr ị</w>
r a_đời</w>
N H</w>
G ần</w>
x úc_
d ương</w>
họ p_
h iểm_
uy ện_
Uỷ_ viên</w>
m ỏ</w>
s ắp_
l ạm_
VF F</w>
vợ t</w>
yê u_thương</w>
l y</w>
tổ ng_thống</w>
V I
phỏng_ vấn</w>
B à_
phá o</w>
Nh óm</w>
BH XH</w>
chấm_ dứt</w>
thuy ết_
hiệ u_l
ũ ng_
ông_t ư</w>
Can ada</w>
t ắt</w>
phòng_ chống</w>
10 0%</w>
đ ậu</w>
đ ương_
thầ y_
t iêu</w>
thật_ sự</w>
ce lo
l ệ</w>
H ọc_
Th ống_
b ướ
8 ,
tố_ cáo</w>
Hải_ quân</w>
nhận_ xét</w>
chuyể n_đổi</w>
ay_ lập_tức</w>
V ân_
Thu ỷ_
T oàn</w>
s ơ_
y _th
c m</w>
nhất_ định</w>
là nh</w>
S -
C Đ</w>
Đ ình</w>
S te
ấ t_tr
C C</w>
Th ự
Hình_ ảnh</w>
Tuy ên_
E l
luật_ sư</w>
A d
K ỳ_
u_tr ưởng</w>
l ở</w>
kí ch_
vui_ vẻ</w>
ể_ cả</w>
Nh ất</w>
xe_t ải</w>
trường_ học</w>
d ầu_
Ph ước</w>
m ét</w>
i c</w>
ầ n_tr
kiế n_trúc</w>
nói_ chung</w>
hợp_ pháp</w>
n ền_tảng</w>
C .</w>
công_ chức</w>
ho a_
nhà_ lãnh_đạo</w>
đ ôi_
gi ây</w>
ess i</w>
H .
n_l ẻ</w>
E x
sai_ phạm</w>
Mô i_trường</w>
kh uyên</w>
R ất</w>
C ái</w>
th ả</w>
th ông</w>
D ung</w>
ngh ị
_tr ận</w>
c ắp</w>
Cộng_ hoà</w>
th ủ</w>
l ọt</w>
L ễ</w>
đồng_ nghiệp</w>
P re
vào_ khoảng</w>
m ất_
ừng_ phạt</w>
2 .000</w>
Đại_ hội</w>
ơ i_
Ngườ i_dân</w>
C ử
nguyên_t ắc</w>
th ở</w>
giao_ lưu</w>
tr iển_lãm</w>
ch ấp</w>
H ơn</w>
đi_ lại</w>
đ ặt_
CS GT</w>
am es</w>
th ủ
200 6</w>
3 4</w>
ic ro
ê nh</w>
h i
en t</w>
khở i_tố</w>
trọng_t ài</w>
N i
ô tô</w>
tr ừng_phạt</w>
T ú</w>
Đ ề_
x uố
K ế_hoạch</w>
v it
Gi a_đình</w>
u r</w>
M on
_ con</w>
b e</w>
u_th ông</w>
đá m_
th ùng</w>
ch ua</w>
hiệu_l ực</w>
Thế_ giới</w>
í nh_
ou r
cả n</w>
ú i_
n út</w>
hôn_ nhân</w>
3 3</w>
a d</w>
th ần_
th ói_quen</w>
do w
Tu y</w>
sá nh</w>
W e
L ương_
ớ n</w>
đấ u_tr
lư u_thông</w>
c anh</w>
ri nho</w>
hiệ u_
công_ cộng</w>
M y</w>
H y_
8 -
ng ưỡng</w>
d ắt</w>
T ỉnh_
thế_ này</w>
b á</w>
Đ a_
Công_ Thương</w>
Olym pi
tr ưở
bu ýt</w>
g ọn</w>
ch ìm</w>
_tr ách</w>
Quố c_tế</w>
tr í
AF P</w>
dẫn_ đầu</w>
Real _M
nh ựa</w>
ch ấm</w>
Mou rinho</w>
hư _h
0 0.000</w>
ký_ kết</w>
đ ắt</w>
p ool</w>
th e</w>
tí nh_toán</w>
F ran
chuy ền</w>
giấy_ phép</w>
H iền</w>
m_t úc</w>
họp_ báo</w>
en d
H uy_
m ây</w>
b ơi</w>
nhà_th ầu</w>
tiế c</w>
tự _hào</w>
s iêu_
kh en</w>
nhẹ _nh
r ào</w>
Kho ảng</w>
ờ_ đợi</w>
lâu_ dài</w>
9 %</w>
ar d
b ỏng</w>
V -
vào_ cuộc</w>
b ằng_
k a</w>
nh ắn</w>
v ững_
l ệch</w>
P er
Tổ _
Đài_ Loan</w>
m uộ
nghiê m_túc</w>
dự_th ảo</w>
tiêu_ cực</w>
T am_
Chúng_t a</w>
tr o
19 4
C à_
v ận</w>
Hà_ Lan</w>
kh ủng</w>
d ứt_
M er
t ắm</w>
đại_ gia</w>
H ệ_thống</w>
W al
n iêm_
độ t</w>
d ị</w>
â u_thuẫn</w>
trộ m</w>
g e</w>
bu ôn_
tr à</w>
hài_ lòng</w>
t ải</w>
ươ i</w>
Real_M adrid</w>
b ù</w>
lợ i_thế</w>
vùng_ biển</w>
chế_t ạo</w>
từ _
ch ờ_đợi</w>
B iên</w>
bá nh_
n ia</w>
h ảo</w>
d ính</w>
ảng_ cách</w>
m ệt_
thuyết_ phục</w>
M V</w>
ngh ị_
v ả</w>
Nhân_ dân</w>
Li ver
C ông</w>
8 00</w>
Đ iểm</w>
t h</w>
m ổ</w>
tỷ_ số</w>
8 .
chỉ _huy</w>
tốt_ đẹp</w>
thiên_ nhiên</w>
khí _hậu</w>
Đ iện_
một_ chút</w>
đám_ cưới</w>
thiết_ lập</w>
HĐ ND</w>
đ ĩa</w>
th ượng_
ch ăn_
quyết_ liệt</w>
qu ầ
Ch ủ
n_l ỗi</w>
7 .
gh ép</w>
cử _tri</w>
ý _thức</w>
nước_ mắt</w>
e o_
đấu_tr anh</w>
liên_ hệ</w>
vật_ chất</w>
bu m</w>
ma il</w>
ch ân_
ẩ y</w>
Bar ca</w>
v a_
il e</w>
i_d ưỡng</w>
c am</w>
iên_t oà</w>
cảm_ ơn</w>
phạm_ vi</w>
h ứ
chủ _trì</w>
đ ấu_
ons _League</w>
ại_tr ưởng</w>
T i
biểu_ hiện</w>
l ad
đ u
5 0%</w>
đa_ dạng</w>
m ốc</w>
ỗ ng</w>
ngh ỉ_
n ở</w>
á ch_
ng ư_dân</w>
/ 12</w>
Chí nh_trị</w>
l and</w>
S .
l ít</w>
ẫ m</w>
G ala
_c ửa</w>
h ệ_
uy ên_
3 7</w>
ng_tr ọng</w>
tu ổ
tr ợ_
al -
nó ng_
ú t_
N AT
nghiê m</w>
L ương</w>
v en
ất_ vả</w>
k ể_cả</w>
ẫ u_
l ặng</w>
_th iệp</w>
Champi ons_League</w>
2 2/
nhân_ lực</w>
tập_ luyện</w>
Liver pool</w>
K inh_
G ra
Đ ắ
B ất_
a_h è</w>
l ộ
Ú c</w>
có _vẻ</w>
ch ốt</w>
Gi ả
r y
H S</w>
_t ài</w>
bình_ quân</w>
W il
B ến_
y_t ờ</w>
Đị a_
thông_th ường</w>
h ằng</w>
Man_ City</w>
H on
gi ờ_
gi ày</w>
đoàn_ kết</w>
H e
al _
D anh_
t -
Re al</w>
es ter
e v</w>
b ến</w>
sho w</w>
st an</w>
đội_ hình</w>
B S</w>
s ự_thật</w>
hiệ p_
n_t ập</w>
B ạch_
hoàn_t ất</w>
NAT O</w>
s ở
c ột</w>
trưở ng_thành</w>
uy ề
ta xi</w>
tr ống</w>
Qu an_
phụ _thuộc</w>
chiế n_sĩ</w>
_ch ịu</w>
B en
th uyền</w>
A P
ng ọn</w>
tàu_ ngầm</w>
quá _kh
ng ắm</w>
TA ND</w>
ánh_ sáng</w>
giấ y_tờ</w>
o át</w>
xuất_ phát</w>
L ần</w>
kh âu</w>
B V</w>
ch e</w>
s u</w>
m e</w>
v inh_
can _thiệp</w>
V ương</w>
truy _
2 1/
hà o_
ưu_ đãi</w>
v ất_vả</w>
n ề</w>
Thự c_tế</w>
v õ
tại_ sao</w>
nhà_ báo</w>
r ũ</w>
N G
Nh ờ</w>
tr ôi</w>
hỗ n_
khối_ lượng</w>
qu ần</w>
_l ệ</w>
d âu</w>
6 5</w>
d i</w>
xác_ minh</w>
hôm_ qua</w>
L on
m âu_thuẫn</w>
l ần_
5 5</w>
L ý</w>
yê u_
3 8</w>
l ập_
làm_ sao</w>
v ỉ
ý_ định</w>
nghi_ ngờ</w>
nhẹ_nh àng</w>
/ 1</w>
H ãng</w>
A u
Công_ nghệ</w>
Th ịnh</w>
xi n_lỗi</w>
tr ừ</w>
b ác</w>
M is
H ạ
mệt_ mỏi</w>
ưở ng_thức</w>
t iệc</w>
B C</w>
l ọc</w>
th an</w>
định_ cư</w>
ch o
ê _h
ũ _
20 00</w>
đồng_ bào</w>
Th ăng_
đánh_ bại</w>
ẩ u</w>
đạo_ đức</w>
tạ p_chí</w>
nh ạc_sĩ</w>
phân_ phối</w>
M T</w>
S ao</w>
Đ ố
Đạ i_diện</w>
Đông_ Nam_
khai_ mạc</w>
đ à</w>
r ãi</w>
a f
bu r
t ết</w>
V ậ
phụ _trách</w>
iễ n_thông</w>
B ank</w>
vit amin</w>
C ầu</w>
s c
Tr ị</w>
tổ n_thương</w>
cứ u_
ẩ n_
tranh_ cãi</w>
tu y</w>
khẩ n_
s iêu_th
Th am_
kho ảng_cách</w>
K o
d ây_
v ẹn</w>
m ất_t
M il
s ắc_
bảo_t ồn</w>
ẳng_ hạn</w>
thuỷ _sản</w>
sắp_ xếp</w>
Hiệ p</w>
Thành_ uỷ</w>
giảm_ giá</w>
B O
th iên_t
m ỡ</w>
m an
gặp_ gỡ</w>
cá nh_
ế_ bào</w>
Gi ấy</w>
iệt_th ự</w>
giám_ khảo</w>
ổ _thông</w>
Khánh_ Hoà</w>
a e
Ho l
C ẩm_
P al
X em</w>
quyề n_lợi</w>
i_d ụng</w>
1 50</w>
Ch úng</w>
năm_ học</w>
xung_ đột</w>
/ 2</w>
M ạnh_
ent ina</w>
biểu_t ình</w>
Vũ ng_
Đ áng</w>
tuyển_ sinh</w>
h ưu</w>
d er
h i_
hà nh_t
L iên</w>
B ước</w>
g ương</w>
ái_t im</w>
ph iên_toà</w>
iên_ liệu</w>
bướ m</w>
Ar g
ên_t uổi</w>
t iể
r ỡ</w>
vỉ a_hè</w>
M U</w>
m ỹ_
kích_th ước</w>
_ V
co m</w>
t â
th ưởng_thức</w>
i_ C
ng_tr ường</w>
S an
cải_t ạo</w>
hoàn_ hảo</w>
cô_ giáo</w>
bà n_t
t ức</w>
chứ ng_t
t ách</w>
thái_ độ</w>
d ung</w>
Ng ãi</w>
7 00</w>
h ải</w>
2 8/
đường_ bộ</w>
gắn_ bó</w>
chủ_ quyền</w>
_t inh</w>
Ph ước_
ì _
d ấu_
khẩn_ cấp</w>
đóng_ cửa</w>
tận_ dụng</w>
es t
muộ n</w>
ghi_ bàn</w>
đ ến_
lần_ lượt</w>
R om
bất_th ường</w>
b ụi</w>
đặ c_s
phát_ ngôn</w>
Bar celo
ph ủ
Pu tin</w>
d ày</w>
o r</w>
ng ược_lại</w>
B ồ
t ức_
10 .000</w>
số_l iệu</w>
H à
And ro
ã n_
khám_ phá</w>
V TC</w>
Par is</w>
c ắt_
đối_ phương</w>
tô n_trọng</w>
_nh ận</w>
Ng ân</w>
t ỉ_
Ang el
cơ _s
2 6/
H àng_
t ế_bào</w>
T oàn_
Ch uyện</w>
động_ lực</w>
i_t ệ</w>
C uộ
quảng_ bá</w>
P i
_ D
H ồi</w>
Ngo ại_trưởng</w>
Th ông_tư</w>
200 5</w>
c_tr ưng</w>
nhà _t
E u
m ỹ</w>
l ú
công_ cụ</w>
b ông</w>
Tr ao_đổi</w>
tr òn</w>
điệ p</w>
Pre mi
ng ăn</w>
M u
nh an_
v ây</w>
nghiê m_
trò _chơi</w>
nh iên_liệu</w>
T -
V ideo</w>
qu en_th
D ưới</w>
201 9</w>
lư u_tr
kị ch_
b ổ</w>
Th iên</w>
T in</w>
C ần</w>
đề_ cập</w>
s o_
biế n_đổi</w>
buôn_ bán</w>
quyề n_lực</w>
ầm_ non</w>
G L</w>
v ươn</w>
quen_th uộc</w>
ê_h ương</w>
chức_ vụ</w>
t ên_tuổi</w>
cực_ kỳ</w>
đồng_ bộ</w>
đất_ đai</w>
o_ l
di_ sản</w>
đ o</w>
G B</w>
_t ình</w>
Barcelo na</w>
Ch u_
c ủ</w>
dự_ đoán</w>
một_ mình</w>
M essi</w>
loại_ bỏ</w>
t i</w>
mất_t ích</w>
th ẳ
Nh ìn</w>
doanh_ nhân</w>
Th ông_
đ ể
M icro
l âm</w>
tà i_trợ</w>
nặng_ nề</w>
quả n_trị</w>
Mi ch
G o
chăn_ nuôi</w>
sa ng_trọng</w>
lạc_ bộ</w>
ngh iện</w>
_ R
er s</w>
Tổ_ quốc</w>
ic a</w>
s ôi_
bá n_lẻ</w>
đặ c_trưng</w>
x ứng_
A f
ã i_
k y
_th ách</w>
bá t</w>
tí ch_hợp</w>
ph ươ
đ ảng_
A P</w>
Qu ỳnh</w>
Ngh iên_cứu</w>
Nh i</w>
iển_ hình</w>
qu ản_
_th ích</w>
x ico</w>
Nguyên_ nhân</w>
ạt_ lở</w>
l iên</w>
u p</w>
s ăn</w>
ph ổ_thông</w>
S i
Lê_ Văn_
n ướng</w>
l ang</w>
L àm</w>
m óc</w>
d âm</w>
B a
cân_ bằng</w>
gi ường</w>
Andro id</w>
ê nh_
sai_ lầm</w>
ến_ rũ</w>
X ô</w>
ù n</w>
k o</w>
Thương_ mại</w>
phò ng_th
hạ ng_
ho àn</w>
o_ đuổi</w>
đ ẻ</w>
cảm_ nhận</w>
hạng_ mục</w>
ấn_đ ấu</w>
chấp_ hành</w>
Tổ ng</w>
7 5</w>
bán_ kết</w>
Lon don</w>
dứt_ điểm</w>
n_t âm</w>
A S
b iết_
v òng_
K hoa</w>
1 1/201
độ _
xứng_ đáng</w>
kh iếu_
nhị p</w>
i_t ình</w>
Tỉnh_ uỷ</w>
quy ến_rũ</w>
T ài</w>
9 .
t ây</w>
l ẽ</w>
rộng_ rãi</w>
C H
qu ê_hương</w>
Quảng_ Ngãi</w>
hoá _chất</w>
xo á</w>
thự c_th
m en</w>
Un it
t ưởng</w>
sâu_ sắc</w>
phát_ sinh</w>
ng ay_lập_tức</w>
da nh_t
s p
vũ _trang</w>
Tr à</w>
giới_ hạn</w>
d ạ
b iệt_thự</w>
Ch ung</w>
M or
d u
c ốt</w>
Nh iệt_
Trần_ Văn_
y l
bạo_ lực</w>
Hợ p_
Th ừa_
t ân_
/201 5</w>
s a</w>
L H
kho ẻ_
s ite</w>
M ặt_
ương_ vị</w>
m_t ội</w>
ag e</w>
nh ấn</w>
tín_ hiệu</w>
10 -
t ượng</w>
ho t</w>
Cá t_
o ạn</w>
d a_
C ơ
bạ n_đ
s ạt_lở</w>
in ch</w>
tin_ đồn</w>
iết_ kế</w>
h ầu_
Đại_ sứ</w>
ân_th ủ</w>
trưng_ bày</w>
Arg entina</w>
an i
phục_ hồi</w>
New_Yor k</w>
Tr ần</w>
B Đ
C P
n .</w>
th ần</w>
an o
xe_ buýt</w>
Ch ỉ_
V al
tăng_ giá</w>
bổ ng</w>
C E
t âm</w>
at e</w>
c_s ỹ</w>
_ chuyện</w>
ch ị
xuất_ bản</w>
h eo</w>
m ỏng</w>
Học_ viện</w>
ảnh_ khắc</w>
tiểu_ học</w>
Thể _thao</w>
chú _trọng</w>
ồ n_lực</w>
Mos co
n am
1, 5</w>
A t
C K</w>
v ir
v ở</w>
thuỷ_ điện</w>
Thái_ Bình_Dương</w>
ch ương</w>
s ưu_t
Ch ánh</w>
p ro
tư _nhân</w>
ưỡ i</w>
ph i
O S</w>
qu y</w>
b ọn</w>
ẹ n_
el l</w>
K e
l ò</w>
the o_đuổi</w>
F -
bà i_t
a ra</w>
w eb
ưở i</w>
b ùng_
r iê
3 1/
mở _cửa</w>
al bum</w>
tu ân_thủ</w>
m ọc</w>
giấ c</w>
sản_ lượng</w>
ho ả</w>
T &
l iệt_
tố i_th
3 9</w>
khó i</w>
A i</w>
tr ò</w>
9 -
ú p_
s uy
V ĐV</w>
ngu ồn_lực</w>
hư_h ỏng</w>
ừ a_đ
đối_ đầu</w>
L ao_động</w>
T& T</w>
Y ou
hộ i_thảo</w>
ạc_ nhiên</w>
th ận</w>
m ãn</w>
ừa_đ ảo</w>
N ước</w>
kh é
từ _th
Đông_Nam_ Á</w>
tu ần_tr
0 1</w>
gi ận</w>
Ph ía</w>
Dav id
m úa</w>
B TC</w>
độc_ giả</w>
Báo_ cáo</w>
Q L
biểu_t ượng</w>
tr ái_tim</w>
khuôn_ khổ</w>
ất_ nhiên</w>
đ ới</w>
củ ng_
củng_ cố</w>
v í_dụ</w>
T ấn_
10 %</w>
n át</w>
hoá _
B l
trang_tr í</w>
s ụ
BO T</w>
s ơn</w>
l inh</w>
c ương</w>
ngày_ nay</w>
nguy ện_
kê u</w>
I D
T ừ
L inh_
sáng_t ác</w>
làm_ ăn</w>
_L ong</w>
thi _thể</w>
ước_t ính</w>
ace ae</w>
B al
u_h ộ</w>
Liên_ Xô</w>
a ta</w>
đối_th oại</w>
kh ớp</w>
Win dow
ưa _thể</w>
H ậu_
Da il
t ông</w>
chú a</w>
gia_ nhập</w>
K ar
nộ i_th
e uro</w>
ph ấn_đấu</w>
thiên_t ai</w>
nghiệp_ vụ</w>
Premi er
tr ong_
Tr ang_
thử _thách</w>
thí ch_hợp</w>
y ết</w>
k ì</w>
d àn</w>
T oà_án</w>
Liên_ minh</w>
T ập</w>
người_ bệnh</w>
m ôi</w>
Mosco w</w>
Vũng_ Tàu</w>
ng ạc_nhiên</w>
n_tr ương</w>
N T
Y ến</w>
Ph ải</w>
h ô
Th o
Kho a_học</w>
cử _
qu ét</w>
H ạnh</w>
l ứa</w>
m ẹ
d ung_
nhan_ sắc</w>
Gia_ Lai</w>
Do anh_
K S</w>
qu a_
or t</w>
duy ệt</w>
Đ ăng_
Qu ận</w>
n ụ</w>
phươ ng_thức</w>
200 4</w>
Ph áp_
Thăng_ Long</w>
HA GL</w>
M as
nh_th ái</w>
đông_ đảo</w>
n ại</w>
b er</w>
đ ẹ
đ eo</w>
đ ắp</w>
ng ựa</w>
tối_th iểu</w>
b ón</w>
C ai</w>
l ông</w>
Đ ào_
tr ung</w>
X ã
B ảo</w>
đ iển</w>
Q T</w>
Lã nh_đạo</w>
l in</w>
nội_ địa</w>
k em</w>
ch ưa_thể</w>
Thái_ Bình</w>
thự c_t
ng ợi</w>
Y T</w>
phạ m_tội</w>
chủ ng</w>
so ft</w>
4 8</w>
tuyệt_ đối</w>
Đạ i_t
D iễ
Bình_ Định</w>
iết_ bị</w>
M ùa</w>
cổ_ đông</w>
Tr uyề
L ê</w>
H ành_
ướ t</w>
qu a_đời</w>
đa_ số</w>
Tổng_ công_ty</w>
_t ay</w>
niêm_ yết</w>
20 %</w>
3 .000</w>
h ứa</w>
Quảng_ Bình</w>
cứ u_hộ</w>
đề_ án</w>
Th ị
A ra
Me xico</w>
M á
ổ ng</w>
A i_C
Lu ật_
tiêu_ diệt</w>
công_ viên</w>
t iện_
L Đ
B ay
tiê m</w>
s en</w>
trang_ web</w>
L an_
siêu_th ị</w>
_l uật</w>
Ai_C ập</w>
Qu ý</w>
thất_ vọng</w>
giá _
v iên_
th ương_t
C B</w>
kịch_ bản</w>
H àn</w>
so_ sánh</w>
m ảng</w>
ol a</w>
for d</w>
l ời_
Th ường_trực</w>
_s ư</w>
s ợi</w>
B r
H ôm_
_c ập</w>
s ống_
n_tr ở</w>
Dự_ kiến</w>
Chi_ cục</w>
Kh u
Cổ_ phần</w>
xo ay</w>
tuần_tr a</w>
o s</w>
ố m</w>
ỹ _thuật</w>
H ơn_nữa</w>
ch âu</w>
a th
th ất_th
Ph úc_
tr iệu_
Premier _League</w>
u ý</w>
nhà_ văn</w>
chiếm_ đoạt</w>
minh_ bạch</w>
D ị
c o_
5 2</w>
ế _th
lắp_ đặt</w>
gợi_ cảm</w>
ng õ</w>
va_ chạm</w>
K u
f i
Tr ái_
vi c</w>
c ụm</w>
TN T</w>
ch uột</w>
tr ần</w>
trò _chuyện</w>
tính_ chất</w>
B ri
nh ạy_
C âu_
b e
T ổ</w>
Micro soft</w>
d âng</w>
an i</w>
en n
es t</w>
nh ìn_
v er</w>
b ốc</w>
X ã</w>
lợ i_dụng</w>
Ph ụ_
ọ t_
Nh a_
m ới_
l ắp</w>
O n
_ch ương</w>
w it
trực_th uộc</w>
đó n_
tiế n_tr
t oà
Tr ắng</w>
phá o_
ng_l ưới</w>
k iêm</w>
Th êm</w>
hu ỷ</w>
_tr uyền</w>
ti on</w>
H ộ
m ạn</w>
My an
ch ai</w>
4 0
tư _tưởng</w>
kích_th ích</w>
in ter
ẻ o</w>
b ọ</w>
khẩ n_trương</w>
ố p</w>
vùng_ đất</w>
K ể</w>
x ưởng</w>
Đ ất</w>
Nhà_ máy</w>
ng_th uỷ</w>
ar i
từ_th iện</w>
góp_ mặt</w>
độ ng_thái</w>
tại_ chỗ</w>
phá i</w>
nói_ riêng</w>
ng ạch</w>
D i_
Hu ệ</w>
ngôn_ ngữ</w>
Liên_ quan</w>
đu ôi</w>
tr o</w>
bắt_ buộc</w>
thu_ hoạch</w>
m ến</w>
Đ ại</w>
in a_
a_h ẹn</w>
Nông_ nghiệp</w>
b ơm</w>
Ch ỉ
phát_ sóng</w>
in o</w>
d uyên</w>
hành_t inh</w>
ng ào</w>
âm_th anh</w>
Th ấy</w>
S ch
th ừa</w>
khuôn_ mặt</w>
tr àn</w>
đà m</w>
quá_kh ứ</w>
C or
3 0%</w>
E n
hoà ng_
t_th ực</w>
Đ i</w>
_ T
tr e
qu ý_
hầu_ như</w>
M au</w>
đ è
mặt_tr ời</w>
L ạt</w>
th ức</w>
Có _lẽ</w>
_h ội_
m ầm_non</w>
đường_ phố</w>
- ĐT</w>
phong_ độ</w>
ú m</w>
Unit ed</w>
_s ỹ</w>
v ải</w>
hứ a_hẹn</w>
ens is</w>
4 2</w>
h ò</w>
ì a</w>
gi ãn</w>
Hải_ quan</w>
l eo</w>
d ông</w>
Ph ần</w>
n_t iến</w>
Hon da</w>
web site</w>
chuyên_ ngành</w>
J os
Kho a_
kh ơi</w>
_G ames</w>
th ực</w>
Pho ng_
hải_ quân</w>
4 7</w>
L ạp</w>
ch inh_
Q H</w>
xe_t ăng</w>
t á
e m_
gi àu_
N ộ
V en
to ả</w>
Man ch
Đà o_tạo</w>
v ắng</w>
Hải_ Dương</w>
thuốc_ lá</w>
K iể
g ánh</w>
Gi ải_
ngh ệ_
Thu ý_
m ồ
S ản_
I II</w>
s k</w>
Ngườ i_
vir us</w>
c ắm</w>
7 /
tr ạ
cá _tính</w>
chiến_ binh</w>
truy _t
Myan mar</w>
ch ữ_
L ào_
r uộng</w>
tố n</w>
Joh n_
phi_ công</w>
Th áp</w>
đ ình</w>
Đà_ Lạt</w>
Lào_ Cai</w>
Tây_ Nguyên</w>
ki stan</w>
nh ãn</w>
X e</w>
J e
tr âu</w>
tà n_
to n_
Đ ừng</w>
tr àn_
l ừa_đảo</w>
ề_ nghiệp</w>
l ùi</w>
thực_th i</w>
cân_ nhắc</w>
i_t iêu</w>
T X</w>
T HC
t s</w>
i_tr ẻ</w>
Tr ọng</w>
C ầu_
do_ đó</w>
r ối_
_th ủ</w>
tương_ đối</w>
đối_ phó</w>
u _trường</w>
h ẹn</w>
con_ cái</w>
tu r
20 .000</w>
le y</w>
S ử
_d ục</w>
trình_ bày</w>
Thường_ vụ</w>
hà m_
chuyển_ giao</w>
Cà_ Mau</w>
tham_ khảo</w>
Nh ung</w>
ả m</w>
an e</w>
sho w
Đ ường_
ch ào</w>
C ĐV</w>
Bồ _Đ
ph e</w>
tr ầ
thông_ điệp</w>
V iên</w>
ươ ng_th
an o</w>
tr iệt_
khó _chịu</w>
d ốc</w>
v ĩ_
b ê
SEA _Games</w>
thu ê_
s e</w>
s ập</w>
bi z</w>
N .
Đ ầu</w>
khiếu_ nại</w>
m ẻ</w>
x y_
Quảng_ Trị</w>
Tr iệu_
4 6</w>
ou n
P .
lo g
M ình</w>
Ả nh_
_ điểm</w>
ư_l ệnh</w>
THC S</w>
đồng_ minh</w>
đ ế</w>
p e
ho a_hậu</w>
ởi_ vì</w>
t ưởng_
ch ân_th
err y</w>
b ọc</w>
Gi ờ</w>
tiêu_ biểu</w>
Tổng_ giám_đốc</w>
Q Đ-
_ ng
Đ ạt</w>
xe_ đạp</w>
d ập</w>
ngh ề_nghiệp</w>
h 30</w>
đ ành</w>
biên_ bản</w>
ố c_
ăng_ dầu</w>
Đ êm</w>
P ro
Tr à_
Nha_ Trang</w>
s ứ_
diễ n_đàn</w>
Xã _hội</w>
tổ ng_thể</w>
h ỏng</w>
ber g</w>
bất_ chấp</w>
ac k_
trái_ cây</w>
dẫn_ dắt</w>
M ặt_tr
là nh_
thủ_ môn</w>
tr i
E m
T a
An_ ninh</w>
Do_ vậy</w>
xi t</w>
loại_ hình</w>
ch anh</w>
Đ oàn_
N Đ-
Nguyễn_Xuân_ Phúc</w>
nhà_ nghiên_cứu</w>
ng ắn_
R ồi</w>
_tr ụ</w>
thẩm_ định</w>
5 /
ngh ỉ
k ẹt</w>
khoẻ_ mạnh</w>
ph ải_
t ạo_
6 4</w>
phân_ biệt</w>
hu ấn</w>
9 9</w>
ch u_
tư_ cách</w>
bằng_ chứng</w>
T ì
khởi_ nghiệp</w>
ạ _tầng</w>
b ẩn</w>
H uyền</w>
hội_ đồng</w>
i_d ời</w>
D iễn_
tài_ nguyên</w>
V H
trạ ng_thái</w>
ở_h ạ_tầng</w>
cắt_ giảm</w>
n ếp</w>
P or
U .</w>
phủ _nhận</w>
ng âm</w>
đồng_t iền</w>
an is
l ý_
d ừa</w>
5 0.000</w>
tr ại</w>
x ạ</w>
u k
ta in
P TNT</w>
Ale x
th u_th
Bay er
nội_ bộ</w>
kho ảnh_khắc</w>
Cu ba</w>
v iễn_thông</w>
n_t in</w>
ẩ m_th
Bộ_ Chính_trị</w>
ch úc</w>
Đ ơn_
to ur</w>
ứng_ viên</w>
_d ưỡng</w>
X uyên</w>
Hy_ Lạp</w>
v ương</w>
V í_dụ</w>
G P
Q G</w>
p e</w>
m i</w>
ph ổi</w>
iến_ quân</w>
n ồng_
BH YT</w>
tiê n_tiến</w>
đảng_ viên</w>
phòng_ không</w>
ủ i</w>
tr ộn</w>
GD -ĐT</w>
khởi_ động</w>
ly_ hôn</w>
huy ết_
thu_th ập</w>
B ỉ</w>
Tuấn_ Anh</w>
nhạy_ cảm</w>
cánh_ cứng</w>
uyện_ viên</w>
J am
nhiệt_ đới</w>
ố t_
nu ô
đại_ lý</w>
Ph i_
lo n</w>
hội_ nhập</w>
mạ ng_lưới</w>
d i_dời</w>
ọ n_
è o_
n ấm</w>
Trước_ đây</w>
Ba_ Lan</w>
không_ quân</w>
th ợ</w>
r am</w>
4 /
c ường_
tỉ _lệ</w>
nh_th ủ</w>
tổng_ cộng</w>
v ang</w>
Nam_ Định</w>
Ph ần_
h y
T ết_
giảng_ dạy</w>
N A</w>
Bồ_Đ ào_
u_tr úc</w>
t ướng</w>
Bồ_Đào_ Nha</w>
as s
oo d</w>
i_tr ọng</w>
đề _tài</w>
Chí _
b a
ph un</w>
tr ẻ
N am
nhân_ sự</w>
F er
chú c_
m ệnh_
t_t ay</w>
Th ư</w>
tr ung_th
th ải</w>
d ò</w>
khuyến_ cáo</w>
bài_ học</w>
vi_ khuẩn</w>
lo r
Tài_ nguyên</w>
B i
S ông</w>
phá _
năng_ suất</w>
thiế t_thực</w>
4 3</w>
lu ồng</w>
Đ iệ
.v n.</w>
ho ảng_
công_ bằng</w>
Tr ận</w>
V àng</w>
sân_ nhà</w>
đôi_ khi</w>
m ượn</w>
er o</w>
L ợi</w>
tập _trận</w>
H ùng_
Truyề n_thông</w>
t ố</w>
i_th ầu</w>
T N</w>
iế c</w>
S G</w>
. com
ch _t
b ăng_
Nguyễn_ Đức_
Ch u
h ắn</w>
Chi a_sẻ</w>
6 3</w>
nghĩa_ vụ</w>
xúc_ động</w>
F I
4 9</w>
Ph át</w>
H ậu</w>
Par k</w>
lộ _trình</w>
ch e
V P
ư_ phạm</w>
ng ơi</w>
Mar i
cơ_s ở_hạ_tầng</w>
v ướng_
Á .</w>
4 1</w>
C om
HĐ QT</w>
sá u</w>
7 2</w>
xét_ nghiệm</w>
K iên_
g ối</w>
Q .</w>
căn_ bệnh</w>
bỏ_ qua</w>
nghệ_ cao</w>
K iên</w>
g ần_
công_ văn</w>
đ ơ
trọng_ lượng</w>
quầ n_đảo</w>
in e_
b ó
ch uối</w>
Th ạch_
V o
Phụ_ nữ</w>
học_ viên</w>
đ ói</w>
Nhiệt_ độ</w>
Thái_ Nguyên</w>
xã _hội_
H uyền_
t oà_án</w>
tay_ vợt</w>
Thu ý</w>
n_th ận</w>
B ro
tương_ ứng</w>
Đ an_
Bả o_t
bàn_t ay</w>
l ấp</w>
s uối</w>
th ú</w>
truy _cập</w>
3 /
ẳng_ cấp</w>
Đố i_t
k _L
triệu_ chứng</w>
nhập_ viện</w>
C ô
thẳ ng_th
th áp</w>
s ay</w>
R u
thân_th iện</w>
ằ n</w>
đấu_ giá</w>
Phạm_ Văn_
x ỉ</w>
u ất</w>
_L inh</w>
tiế n_bộ</w>
chữ a_
V ấn_đề</w>
200 3</w>
el la</w>
hàng_ xóm</w>
thí _điểm</w>
Ch ar
4 4</w>
đồng_ hành</w>
am b
U 19</w>
m ù</w>
Kh u_vực</w>
iề u_l
c â
o an</w>
K iến_
trung_ ương</w>
bạn_đ ọc</w>
C ứ</w>
ho w</w>
12 -
có c</w>
m_th ời</w>
/201 4</w>
th ờ</w>
inter net</w>
al l
x ăng_dầu</w>
đá y</w>
bả y</w>
un d
M c
en a</w>
t s
Đ ộ
phong_ phú</w>
_tr ữ</w>
bị_ can</w>
_t ải</w>
C uối</w>
ế m</w>
v ố
er o
el a</w>
D uyên</w>
quốc_ lộ</w>
al y</w>
l ừa</w>
Trường_ Sa</w>
í m</w>
Đ ài</w>
k e
P G
AP EC</w>
Tổng_ hợp</w>
V ic
n er</w>
To yo
đột_ phá</w>
C uối_cùng</w>
thực_t iễn</w>
biên_ chế</w>
vui_ chơi</w>
Long_ An</w>
nh ở</w>
d ài_
Olympi c</w>
un i
bí_ ẩn</w>
2- 3</w>
l ượt_
Bắc_ Ninh</w>
ất_tr í</w>
N ên</w>
kh u_
Ninh_ Bình</w>
ch ặng</w>
i_tr ả</w>
câu_ lạc_bộ</w>
ch_th ú</w>
_tu ệ</w>
Xu ất_
H ôm</w>
M ã</w>
Liên_ đoàn</w>
l ục_
khá t</w>
V TV</w>
D uy</w>
đ ẳng_cấp</w>
Viet nam_
chinh_ phục</w>
b út</w>
x ách</w>
Đ úng</w>
6 8</w>
Tim es</w>
c ất</w>
gi ản_
nghệ_th ông_tin</w>
Th ay_
anh_ch àng</w>
gi ao
đ ùa</w>
ở _d
th ậ
L ễ_hội</w>
đ ỉnh_
ng ọt_
D A</w>
v o</w>
ph iến_quân</w>
b ề_
đường_ dây</w>
ch i_trả</w>
ac e</w>
_t ử</w>
nh ắc_
c -
tạ m_thời</w>
P lus</w>
quy _t
bỏ_ phiếu</w>
thi_ đua</w>
D L</w>
X X</w>
A g
thẩm_ mỹ</w>
ết_th ương</w>
_d âu</w>
diễn_ xuất</w>
go m</w>
tiế ng_
Không_ quân</w>
BĐ S</w>
5 4</w>
tiêu_ hoá</w>
hà m</w>
P an
R os
chủ _nhân</w>
chứng_t ỏ</w>
z a</w>
ng ón</w>
cao_ su</w>
thuê_ bao</w>
r i</w>
X in</w>
vướng_ mắc</w>
Tr í</w>
HC M.</w>
show biz</w>
h ẹn_
hỗn_ hợp</w>
g ãy</w>
trọng_ điểm</w>
i f
thí ch_thú</w>
Dân_ chủ</w>
cẩ n_thận</w>
đầ m</w>
chữa_ cháy</w>
d u</w>
tiết_ mục</w>
sứ_ quán</w>
Toyo ta</w>
cá p</w>
d an</w>
U N
h ối_
Đề_ án</w>
r l</w>
L a
đánh_ dấu</w>
u_đ ớn</w>
hoá _học</w>
CN TT</w>
ra u_
l âm_
văn_ học</w>
199 0</w>
n_th o
p_th uận</w>
ch ém</w>
5 1</w>
n -
Su -
binh_ sĩ</w>
đ iển_hình</w>
6 2</w>
hậu_ vệ</w>
K iểm_
Sơn_ La</w>
A c
Nhà_ Trắng</w>
giàu_ có</w>
B ích_
n ắng_
á t_
Viet tel</w>
ho ãn</w>
đình_ chỉ</w>
đối_ lập</w>
6 7</w>
dự_ định</w>
d el</w>
NĐ- CP</w>
nữ _sinh</w>
g ũi</w>
TT -
c úng</w>
ú c_t
_h ơi</w>
ng ự</w>
th áo_
chấ p_thuận</w>
on i
sưu_t ập</w>
Nguyễn_ Hữu_
Tư_ pháp</w>
Tuy _vậy</w>
x ao</w>
công_ nghệ_cao</w>
ho ang</w>
H er
c as
S inh</w>
. HCM.</w>
giáo_ sư</w>
pho ng_t
ng ân</w>
đố i_diện</w>
Nh ưỡng</w>
N ăm_
c ải</w>
ở _
GD P</w>
9 /
mạ o</w>
ứng_ xử</w>
bảo_ quản</w>
qu ãng</w>
hẹn_ hò</w>
C ận_
gần_ gũi</w>
tiề n_l
5 6</w>
S inh_
tho ả_
o _tr
r ạng</w>
Bình_ Thuận</w>
tr ị</w>
T ử
văn_ minh</w>
cải_t iến</w>
bảo_ mật</w>
b ắ
K iều_
ic e</w>
bộ_ máy</w>
vo i</w>
mẹ _con</w>
P V
phòng_th ủ</w>
an ia</w>
tập_ huấn</w>
K iều</w>
lãng_ mạn</w>
biến_ động</w>
G ar
g ạch</w>
S óc_
nh ất_trí</w>
Lê_ Thị_
Thuỵ _S
C al
c ưỡng_
t iết</w>
ư_ ký</w>
L ệ_
c ự
kh í_
Af gh
nh ẫn</w>
l ỗ
n_đ oán</w>
_d ày</w>
10 .
tiề n_t
n ồi</w>
chúc_ mừng</w>
người_ lớn</w>
Nội_ vụ</w>
g ã</w>
c ước</w>
y ên_
Ch uyên_
v ết_thương</w>
E D</w>
yê n_tâm</w>
ch uộng</w>
hạ _
giả i_t
i_t ính</w>
anis tan</w>
c ất_
k ế_t
C ho
v e
H ạ_
qu e</w>
t t</w>
l er</w>
Ng ày_
ước_ mơ</w>
lãng_ phí</w>
th ứ
phát_ động</w>
dân_ gian</w>
không_ kích</w>
Co n_
ẩm_th ực</w>
c ậy</w>
Th ạnh</w>
hy_ sinh</w>
am p
Tổng_ Giám_đốc</w>
h òn</w>
Bình_ Nhưỡng</w>
v ương_
r ét</w>
viên_ chức</w>
đa u_đớn</w>
Nguyễn_ Ngọc_
l ục</w>
tr inh_
Th ật</w>
n_th ủ</w>
ắp_ nơi</w>
b ạo</w>
n ông</w>
dạ _dày</w>
TP .HCM.</w>
nh ầm</w>
x ưng</w>
To p</w>
đ ặc</w>
giá_ cả</w>
_h iệu</w>
th âm_
mặt_ đất</w>
y_tr ò</w>
E d
K ong</w>
A M</w>
Afgh anistan</w>
dân_ chủ</w>
tình_ báo</w>
_l a</w>
C ap
Hạ _Long</w>
chi_ nhánh</w>
liên_ minh</w>
đ úng_
h ước</w>
nh ỏ
ac k</w>
M W</w>
1 20</w>
In de
bu ồn_
t ư_d
h ẹp</w>
ch i_tiêu</w>
A .</w>
N .</w>
9 00</w>
c ăng</w>
K H
P C</w>
er i
tr e</w>
F C</w>
8 5</w>
te in</w>
lý _tưởng</w>
c úp</w>
trẻ _trung</w>
9 5</w>
bệ nh_t
cấ u_trúc</w>
on line</w>
H IV</w>
Á nh</w>
Phú_ Thọ</w>
nh ì</w>
Ph ật</w>
học_ bổng</w>
dấu_ ấn</w>
ng ộ_
kh ắp_nơi</w>
F i
Trần_ Thị_
Thuỵ _Đ
nghỉ_ ngơi</w>
d ọn</w>
G re
ph ầ
h e
dân_ sự</w>
tr iệ
th ắ
T ăng_
h ái</w>
vũ _trụ</w>
nam_ giới</w>
n_t ắc</w>
M in
T iếng</w>
Thuỵ_Đ iển</w>
es _
Pa d</w>
m ắm</w>
Bắc_ Bộ</w>
T ác_
Trường_ hợp</w>
anh_ hùng</w>
T Đ</w>
kh e</w>
m àng</w>
bê _t
kho áng_
M ỹ
Tr ả_lời</w>
Sa u
thu_ giữ</w>
bình_ chọn</w>
n_ vẹn</w>
á o_dài</w>
bất_ cập</w>
s ôi</w>
VO V.
b iên</w>
vệ _tinh</w>
nguyện_ vọng</w>
Chủ _nhiệm</w>
nhắc_ nhở</w>
châu_ Phi</w>
bản_ quyền</w>
o ảng</w>
giảng_ viên</w>
S on
yế u_
en s</w>
trực_th ăng</w>
200 1</w>
đẹ p_
m èo</w>
It aly</w>
â n_trọng</w>
thân_th iết</w>
20 -
s ổ</w>
ại_tr ừ</w>
Kh ê</w>
0 2</w>
g e
4 .000</w>
L y</w>
ứng_ phó</w>
H ầu_hết</w>
D ầu_
sức_ ép</w>
ng_t ác</w>
199 9</w>
M at
ắ k</w>
d ạy_
l ines</w>
Qu ý_
ò _m
L .</w>
8 8</w>
sinh_ học</w>
hài_ hước</w>
L ý
Nguyễ n</w>
huy ề
T iếp</w>
_l ạ</w>
tuyển_ dụng</w>
hạ m</w>
iế m_
m óng</w>
S ang</w>
th iê
r y</w>
phá i_
n_l uyện</w>
đo an</w>
danh_ mục</w>
ngọt_ ngào</w>
một_ nửa</w>
cố _tình</w>
Vậ n_tải</w>
5 8</w>
tỷ_ phú</w>
tin_t ức</w>
200 2</w>
ống_ chế</w>
Công_ Phượng</w>
d òng_
bả n_đồ</w>
S al
L ị
v e_
tr ụ</w>
T ối</w>
Ro ber
res s</w>
ê -
người_ nhà</w>
G a
10 0.000</w>
Gi ới</w>
Đ ộng</w>
An_ Giang</w>
th á
to r</w>
Phú_ Yên</w>
ra d
N ếu_như</w>
to_ lớn</w>
2 50</w>
h o</w>
ng er</w>
. com</w>
tuy ệt</w>
dữ _d
nổ i_d
o_d ù</w>
c ống_
an s</w>
t iểu</w>
qu ý
To t
d ãy</w>
hiện_ diện</w>
tr ả_
ù n_tắc</w>
HC V</w>
huyề n_thoại</w>
ch ênh_
Tr ấn_
o l</w>
tu ỳ
I A</w>
Kh ắc_
B é</w>
Co lo
v inh</w>
5 3</w>
Gi ang_
bo t</w>
hải_ sản</w>
m ăng</w>
động_ đất</w>
đồ i</w>
Đ a</w>
m ặn</w>
I C
phá _h
B .
đô _la</w>
Trung_ Đông</w>
đ ắc_
l ắng_
nướ c_thải</w>
PC CC</w>
1 1-
ôn_ xao</w>
trinh_ sát</w>
đề n_
d án</w>
đón_ nhận</w>
Giả i_th
nh ắm</w>
ph ê_
Má y_
lành_ mạnh</w>
c_tr ạng</w>
giả ng</w>
5 7</w>
N or
xe_ khách</w>
cây_ xanh</w>
học_ hỏi</w>
kh ởi</w>
K iếm</w>
tr ượt</w>
thảm_ hoạ</w>
Lâm_ Đồng</w>
ượ ng_t
Liên_ hợp_
Đảng_ uỷ</w>
Thực_ hiện</w>
ti nh_tế</w>
gi ữ_
lưu_tr ữ</w>
huy _chương</w>
Q uyền</w>
u_th ầu</w>
t iên_
l át</w>
ch ấn_
Ngh i_
d ã</w>
B ác</w>
t iệm</w>
phá_h uỷ</w>
quy_ chế</w>
en c
S co
tư_d uy</w>
khách_ quan</w>
i r</w>
trọng_t âm</w>
Doanh_ nghiệp</w>
Liên_hợp_ quốc</w>
h ô</w>
iểu_ biết</w>
thẳng_th ắn</w>
T iền</w>
6 0
hữu_ nghị</w>
B ị</w>
H ay</w>
cá _
com bank</w>
r ạp</w>
i b
từ_ bỏ</w>
Nh ận</w>
thực_ chất</w>
ch ạy_
Hà_ Đông</w>
mụ n</w>
m_t oán</w>
tr ùm</w>
sinh_ nhật</w>
trang_ điểm</w>
bảo_ hiểm_
ngoại_ hình</w>
Á _hậu</w>
12 .
ti c</w>
B ang
tâ m_tr
M ac
M ức</w>
ng_th iết_bị</w>
phần_ nào</w>
l õi</w>
ch è</w>
h ang</w>
chỉ_ định</w>
gi rl</w>
ph im_
sá ch_
Dị ch_
Anh_ Tuấn</w>
sáng_ lập</w>
vô_t ình</w>
G ro
B -
It alia</w>
ông_ bà</w>
mở _
kh ống_chế</w>
r è
c ấu_
Hội_ đồng_
bu ôn</w>
wit ter</w>
h iểu_biết</w>
Bá c_sĩ</w>
_th ẩm</w>
i_t ử</w>
Nh ã_
làm_ đẹp</w>
rối_ loạn</w>
huấn_l uyện_viên</w>
T ư</w>
P .</w>
n ảy_
P l
d ược</w>
sơ _thẩm</w>
v il
ch iêu</w>
d ị_
L in
n_t iếp</w>
es t_
p_ học</w>
vị _thế</w>
đăng_ quang</w>
K y
hiệ n_th
nhìn_ nhận</w>
Air lines</w>
_s át</w>
_h ạn</w>
Ch ủ</w>
nông_ sản</w>
thập_ niên</w>
Giáo_ sư</w>
nghỉ _dưỡng</w>
K H</w>
ho ại</w>
linh_ hoạt</w>
n ếu_như</w>
T iên_
kí p</w>
tham_ mưu</w>
chiến_th uật</w>
ữ_ hoàng</w>
N D
lo a</w>
m iễn</w>
Đà m_
V lad
Vin a
m ày</w>
l ậu</w>
Ho ng_
đồng_ nghĩa</w>
S L
cá ch_th
tính_ cách</w>
ch iề
thí ch_
15 -
song_ phương</w>
x ôn_xao</w>
Ch ứng_
t ủ
l ấn_
ng ành_
km /
g ắt</w>
c ong</w>
ay _tr
cử_ viên</w>
Mich a
a k</w>
dữ_d ội</w>
ti ng</w>
ti c
tra nh_thủ</w>
C ậu</w>
v es
Dail y_
chấ t_th
chất_th ải</w>
chỉ nh_
7 0%</w>
g ay_
ho an_
vận_ động_viên</w>
chiế n_trường</w>
luật_ pháp</w>
nh_t ay</w>
khô i_
Ngh e</w>
V u
l ỏng</w>
sôi_ động</w>
n_th u
tra ng_thiết_bị</w>
n_ M
_th ân</w>
m 3</w>
Đại_t á</w>
30 -
C ali
km/ h</w>
To ky
T ôn_
ic k
lạm_ phát</w>
C a
T witter</w>
t âm_th
đ ứt</w>
C as
nội_th ất</w>
H iển</w>
Bắc_ Giang</w>
cống_ hiến</w>
v ò
G en
th ổi</w>
10 0
u ra</w>
on ey</w>
10 /
6 6</w>
năng_ động</w>
dự_ phòng</w>
an n
2, 5</w>
n ạp</w>
K S
ẩ n_đoán</w>
lin ton</w>
co l
bồ i_dưỡng</w>
tươ i_
chênh_ lệch</w>
s ợ
C H</w>
xe _hơi</w>
r ẽ</w>
quá _tải</w>
gia_ vị</w>
đối_ ngoại</w>
Ph ùng_
ắc_ mắc</w>
phòng_ ngự</w>
T R
k ý
g ìn</w>
thầ y_trò</w>
d ụng_
ng_l ợi</w>
Kiể m_tra</w>
ng ô</w>
Window s</w>
tức_ là</w>
nh í</w>
O anh</w>
B lu
tí m</w>
nh ãn_
Ch iến_
Hà_ Giang</w>
nh_t ượng</w>
i_tr ưởng</w>
H a
a h</w>
b ấm</w>
B ái</w>
s an</w>
à m_
.. ..</w>
m ệnh</w>
is _
ao_t iếp</w>
_ch ủ</w>
đền_ bù</w>
n ứt</w>
c_th ù</w>
cổ_ vũ</w>
0 9
S an_
r ồng</w>
B ây_giờ</w>
, 5</w>
Z e
nắng_ nóng</w>
c_t ính</w>
hiện_ hành</w>
d ạo</w>
Al -
A M
tổ _hợp</w>
Hiệ u_trưởng</w>
Pa kistan</w>
mộ ng</w>
công_ lập</w>
/201 0</w>
công_ nghệ_thông_tin</w>
trước_ mắt</w>
12 /
_th uyết</w>
ch ép</w>
m ẫu_
tr a</w>
ch e_
NH NN</w>
Lị ch_sử</w>
ạ i_d
ar di
t ứ_
FI FA</w>
tính_ mạng</w>
h ổ</w>
Thời_ điểm</w>
dài_ hạn</w>
ấ p_th
tr ục</w>
u_th uyền</w>
b ì</w>
Th i</w>
g ác</w>
bắ t_tay</w>
el and</w>
Thu ỳ_
đạ n_
kiên_ quyết</w>
0 5</w>
khởi_ công</w>
x ăm</w>
tiế n_sĩ</w>
5 9</w>
v ong</w>
h iể
h am
ad i
tr ân_trọng</w>
l ĩnh</w>
t en
phá n_
bá c_sỹ</w>
th ường_trực</w>
doanh_ số</w>
Đ ạo_
ả_th i</w>
B us
máy_ móc</w>
th ắc_mắc</w>
9 2</w>
T ờ</w>
làm_ nên</w>
1 1.
ch án</w>
nghị_ quyết</w>
i Pad</w>
kh ả_thi</w>
cử a_s
tr ầm_
nh am</w>
b ận_
Tổng_ Bí_thư</w>
B or
m en
c ua</w>
Tr ì</w>
i_ động</w>
m ặ
Quốc_ lộ</w>
à_ nước</w>
n_tho ại_d
n_thoại_d i_động</w>
J ack
tr ợ
H N
t_t ình</w>
rè n_luyện</w>
ó _
3 0.000</w>
Đồng_ Tháp</w>
bá n_đảo</w>
L am</w>
x á</w>
Á o</w>
tr ọ</w>
b ến_
Luật_ sư</w>
b y</w>
chi p</w>
tin_ cậy</w>
S o</w>
w ar
C -
ú n</w>
k iê
i_th ức</w>
gi ao_tiếp</w>
Bảo_t àng</w>
Liên_ bang</w>
th ắt</w>
trang_tr ại</w>
Tr ăng</w>
thần_ kinh</w>
tiể u_th
_nh à_nước</w>
g as</w>
P et
Th iế
vũ _
ar ia</w>
ch ống_
n_t ạo</w>
giữ_ gìn</w>
ực_ rỡ</w>
I S
T ô_
K ông</w>
T âm_
hoá_ đơn</w>
đ ệ
r ộn</w>
7 7</w>
đ òn</w>
t a_
á c_thải</w>
vui_ mừng</w>
P os
Qu á
cách_th ức</w>
vị t</w>
b ê</w>
lý _nhà_nước</w>
úc_t iến</w>
1 1
Qu ỹ_
V y</w>
Cali for
d ẹp</w>
C ương</w>
iề m_
Mặt_tr ận</w>
xuố ng_
S H
cung_ ứng</w>
G r
l ử
s an_
Hôm_ nay</w>
giờ_ đây</w>
vững_ chắc</w>
dịch_ bệnh</w>
Q uyên</w>
M -
ch ọ
quy ền_
t ỏi</w>
ứng_ cử_viên</w>
h i</w>
l ượng_
đàn_ bà</w>
6 .000</w>
l ong</w>
c_s ạch</w>
Đ iều_
Chỉ_ đạo</w>
Ph im</w>
_h ãi</w>
Thu ận_
khôi_ phục</w>
ch ẩn_đoán</w>
4 0%</w>
e a</w>
ir e</w>
Đắ k_L
Tr iển_lãm</w>
V an_
là ng_
K T</w>
S ân_
kỹ _sư</w>
Hiệp_ định</w>
cảm_ hứng</w>
iều_l ệ</w>
điệ n_thoại_di_động</w>
quản_ lý_nhà_nước</w>
3 8
thập_ kỷ</w>
U A
tàu_ sân_bay</w>
T ường</w>
ph ấn_
HĐ XX</w>
ar y</w>
r ực_rỡ</w>
LH Q</w>
bả n_l
nh iếp_
ương_th ực</w>
Tr ạm</w>
nh ạc_
thắ ng_lợi</w>
chủ_ nghĩa</w>
_h át</w>
sân_ chơi</w>
Công_t ác</w>
Đ ảo</w>
đ ậu_
Kiên_ Giang</w>
tain er</w>
bê_t ông</w>
T or
n_th ị</w>
m ờ</w>
nh_tr áng</w>
lạm_ dụng</w>
H uy
G ol
chất_ liệu</w>
s ướng</w>
giám_ định</w>
đường_ cao_tốc</w>
_t ích</w>
l ội</w>
Yên_ Bái</w>
ch ả</w>
e mail</w>
Manch ester
Ch iến</w>
lý_ giải</w>
c_tr ách</w>
Cuộ c_sống</w>
al a</w>
tu ần_
thu a_
hu ỷ_
8 0%</w>
l ỡ</w>
Đắk_L ắk</w>
Ch e
kho an</w>
t ẩ
C ro
T ư_lệnh</w>
Ngọc_ Hà</w>
Mil an</w>
sợ _hãi</w>
Tuy ến</w>
h ệ
g ục</w>
L ạng_
Nhà _hát</w>
nhiệ t_tình</w>
c ay</w>
thân_ hình</w>
ết_t ật</w>
n âu</w>
triệt_ để</w>
C T</w>
m_ cắp</w>
v ạn</w>
CE O</w>
Wil li
u_ d
Hoàng_ Anh</w>
đặ c_thù</w>
đ ằng</w>
bá c_
Ro oney</w>
Ge or
Tiế n_sĩ</w>
C ăn_
kho ăn</w>
C ảnh</w>
kh ăn</w>
th ông_t
Công_ nghiệp</w>
U -
lắng_ nghe</w>
V- League</w>
T ất_nhiên</w>
H i
6 1</w>
R am
tiến_tr ình</w>
L ập</w>
U ber</w>
ng ột</w>
đ án</w>
w w
ăn_ khoăn</w>
quan_ niệm</w>
Đ ô</w>
m on
bả o
7 1</w>
l ây_
ạ _l
ph anh</w>
ho an</w>
A -
tiê m_
Câu_ chuyện</w>
Mặt_ khác</w>
a_ L
đ oà
khuy ết_tật</w>
Tot te
V ịnh</w>
Tiến_ Dũng</w>
M TT
C ol
g en</w>
cao_ điểm</w>
Gala xy</w>
To à</w>
kim_ ngạch</w>
D ùng</w>
O r
u_l òng</w>
Bả n_thân</w>
Dân_ số</w>
iểu_ số</w>
B iển_
Thiế u_t
lớ p_học</w>
tuổ i_th
el i
l ặn</w>
hệ_ điều_hành</w>
é c</w>
m ì</w>
n_s ỹ</w>
l ực_
nhiễ m_
Vlad im
ris ti
N iên</w>
T ông</w>
y c
á p_th
vòng_ loại</w>
ấ c</w>
ng ập_
w i
hàm_ lượng</w>
thự c_trạng</w>
r y_
Đa_ khoa</w>
b i</w>
Nguyễn_ Thanh_
W ar
Cầu_ Giấy</w>
b í</w>
at ar</w>
đỉnh_ cao</w>
r ác_thải</w>
giải_ cứu</w>
c ạn</w>
K T
d ồn</w>
Toky o</w>
thành_t ựu</w>
số t_
er ia</w>
đánh_ bắt</w>
kim_ loại</w>
m a_
No kia</w>
đồng_t ình</w>
v an</w>
bur g</w>
ng_t ay</w>
ngộ_ độc</w>
Đảng_ bộ</w>
V er
đột_ ngột</w>
ch ăng</w>
b ấy_
C ây</w>
C S</w>
con tainer</w>
t ôn</w>
CS ĐT</w>
m_th iểu</w>
C ảm_
p l
sát_ hại</w>
ar i</w>
Q .
Đại_ sứ_quán</w>
tôn_ giáo</w>
6 9</w>
s ạc</w>
S. TS</w>
_L iêm</w>
Qu ả</w>
v ượ
tr ọn</w>
số_ phận</w>
Mis s_
t ầ
K ur
Nộ i_dung</w>
ng_t ử</w>
đ ắng</w>
vị nh</w>
ao_t ặng</w>
đầu_ mối</w>
M ed
m ị
tr ích</w>
tiền_ mặt</w>
nóng_ bỏng</w>
Inde x</w>
chất_ vấn</w>
y_ mà</w>
C ông_th
đổ_ bộ</w>
8 1</w>
k er</w>
u_th ế</w>
G et
B KS</w>
ch ẳng_hạn</w>
Ex p
kh áng</w>
C âu</w>
ne y</w>
s t</w>
n o</w>
hành_ lang</w>
tôn_ vinh</w>
Califor nia</w>
cân_ đối</w>
truy_t ố</w>
nướ c_sạch</w>
Trấn_ Thành</w>
s ỹ</w>
vu ông</w>
th ai_
Hoàn_ Kiếm</w>
cực_ đoan</w>
đ ắt_
t in
ắm_ bắt</w>
đặc_ điểm</w>
Tiền_ Giang</w>
bận_ rộn</w>
v ội</w>
N ông</w>
bình_ đẳng</w>
x ôi</w>
Quy_ hoạch</w>
b ăn_khoăn</w>
thời_ đại</w>
M P</w>
ành_ đai</w>
Ma il</w>
Ngh ệ
thực_ hành</w>
T ương_tự</w>
U Y
9 0%</w>
trung_ vệ</w>
Lý _do</w>
7 6</w>
ê_ b
H ọ
es s</w>
Th ảo_
Bá _
S ou
Hội_ An</w>
b iệt_
dụng_ cụ</w>
T ại_
d ao_động</w>
co in</w>
N N
t ụ
w ood</w>
Đ ào</w>
giả m_thiểu</w>
/201 1</w>
H am
V .</w>
ti s</w>
đấ u_thầu</w>
Vladim ir
trái_ phiếu</w>
nhà_ cửa</w>
tr iều_
tác_ chiến</w>
n_th ảo</w>
có_ khi</w>
xâm_ nhập</w>
c ống</w>
d ư</w>
D I</w>
tiền_l ương</w>
Châu_ Âu</w>
l òng_
mật_ độ</w>
huyết_ áp</w>
cả n_trở</w>
ò n_
s ạch_
M uốn</w>
co r
xuố ng_cấp</w>
Jo ng-
dự _trữ</w>
th ằng</w>
T ình</w>
o_l éo</w>
L oại</w>
cô _dâu</w>
Ju ven
b ộc_
tr ú
N ơi</w>
ngh iêng</w>
X -
Nguyễn_ Minh_
Ph òng_
Ne y
8 0
Hong_ Kong</w>
tổng_ kết</w>
nh ậu</w>
Kh anh</w>
kho ác</w>
d ri
_nh ật</w>
tuy ể
M ụ
l iều</w>
ắ n_tin</w>
W h
ậ p
đồ_ ăn</w>
Ch ung_
đề_ cử</w>
tr ao_tặng</w>
cố_ định</w>
v ướng</w>
ch ậu</w>
Gala xy_
n_t oàn</w>
học_ phí</w>
ững_ ai</w>
AF F</w>
ng ộ</w>
độc_ hại</w>
tình_ nguyện</w>
199 5</w>
dự _t
ươ m</w>
T ỉnh</w>
si nh_thái</w>
t_tr ội</w>
m bia</w>
C ri
C linton</w>
S ẽ</w>
S V</w>
cửa_ khẩu</w>
Gu ardi
1- 2</w>
t ang_
T ín</w>
di_ cư</w>
í u</w>
khé o_léo</w>
nổi_d ậy</w>
A D
F PT</w>
For d</w>
thậ n_trọng</w>
vượ t_trội</w>
d àn_
C lip</w>
F u
nhân_t ạo</w>
Le e_
ng_t ượng</w>
_s ở_hữu</w>
ám_ ảnh</w>
T in_
Pa ul
S G
H O
W i
sáng_ kiến</w>
c ành</w>
ng ang_
D u_
xuất_ xứ</w>
1 .0
D on
hải_ quan</w>
Nh ơn</w>
ng ưỡng_
ặ m</w>
gi ọt</w>
VO V</w>
ụ a</w>
Lạng_ Sơn</w>
s ử</w>
s ơ</w>
phòng_ ngừa</w>
M ẫu</w>
G ran
Totte nham</w>
j e
bì nh_t
V ừa</w>
h ương_vị</w>
ngăn_ ngừa</w>
Tại_ sao</w>
k iểm</w>
Công_ Vinh</w>
Hưng_ Yên</w>
tham_ vọng</w>
t ủ</w>
e -
le ti
b ởi_vì</w>
D ù
Qu ỹ</w>
Ngh ĩ
cứ ng_
giá _thành</w>
Vic tor
V iện_
R ị
B ị_
l ân_
Ven ez
h ở</w>
MTT Q</w>
gi ế
ngoạ i_tệ</w>
Kh ang</w>
a nh_tr
d ữ</w>
Tr i
M à</w>
khởi_ đầu</w>
b ắp</w>
_kh ai</w>
b ar</w>
Ney mar</w>
Tết_ Nguyên_
r áp</w>
iến_ pháp</w>
H ân</w>
đ ựng</w>
đ úc</w>
Quá _trình</w>
nh ắn_tin</w>
199 8</w>
L iêu</w>
T. Ư</w>
bản_l ĩnh</w>
Bảo_ vệ</w>
ph ơi</w>
mỹ_ phẩm</w>
and al</w>
h ùng_
Từ _Liêm</w>
Tr ung_t
c úm</w>
tr i_
V ụ_việc</w>
r ao</w>
phi m_tr
sá p_
hồi_ phục</w>
T ử</w>
v ội_
B re
Tây_ Bắc</w>
thăm_ dò</w>
B ức</w>
O p
n ấu_
không_ những</w>
gh é</w>
í ch_th
Bà_ Rị
ĩ_ quan</w>
tr ục_
giải_t oả</w>
s ắ
ỗ ng_
n úi_
im_ lặng</w>
s el
Juven tus</w>
bác_ bỏ</w>
D or
s a_
khu_ phố</w>
Th ông</w>
suy_ giảm</w>
I M
Dự_ báo</w>
Ng ôi</w>
v ã</w>
điều_ hoà</w>
Ứ ng_
t ệ</w>
óc_ dáng</w>
Đ ống_
r ào_
Uỷ_ ban_
ì a_
tháo_ gỡ</w>
Thuỵ_S ĩ</w>
E uro</w>
Tr e</w>
b ất_t
m ồi</w>
id e</w>
r ủ</w>
Ban_ đầu</w>
u ela</w>
c ắn</w>
ph ím</w>
7 3</w>
ũ a</w>
VN PT</w>
v ớt</w>
Diễ n_đàn</w>
Th iện_
b a_
T iêu_
kha i_tr
k ẻ
F o
đ ống</w>
Ư T</w>
B lo
Cá ch_
trộ m_cắp</w>
K ỹ_thuật</w>
8 6</w>
nghị _sĩ</w>
Thanh_ niên</w>
l ận</w>
t áo_
rad ar</w>
C ầ
Hộ i_thảo</w>
ra g
ic k</w>
Giải_th ưởng</w>
199 7</w>
B ạc_
Hol ly
đau_ đầu</w>
km ²</w>
đặc_s ản</w>
sơ _t
lã nh</w>
cửa_s ổ</w>
200 .000</w>
nhà _tr
al e</w>
t es</w>
t iệ
g ây_
K on_
x ứng</w>
gh t</w>
_l oại</w>
0 3</w>
197 5</w>
A S</w>
lu i</w>
n ã</w>
K iệt</w>
ch ay</w>
8 2</w>
b iên_t
L ời</w>
mưa_ rào</w>
kho ang</w>
phản_ hồi</w>
Chính_ quyền</w>
Qu ỷ</w>
v ặt</w>
tỉ_ số</w>
th ụ
Ph ật_
kinh_ hoàng</w>
50 0.000</w>
đ ê</w>
M ường_
đồ ng_th
thị_ phần</w>
T ới</w>
H ạ</w>
Ne t</w>
tr ông_
D el
uố n_
p s</w>
chức_ danh</w>
es ter</w>
b ưởi</w>
b ể</w>
u ật_
Venez uela</w>
lượng_ vũ_trang</w>
M ạnh</w>
Á nh_
T ự</w>
_h ôi</w>
S un
sáp_ nhập</w>
ò _r
chủ _sở_hữu</w>
7 9</w>
danh_t iếng</w>
gó i_thầu</w>
B ảng</w>
L y
t ưở
b ỏ
kỳ _lạ</w>
ro bot</w>
T ạ
Đ iền</w>
C ặp</w>
k ar
199 2</w>
tranh_ luận</w>
thượng_ đỉnh</w>
t an_
tự a</w>
k ép</w>
al and</w>
Nam_ Phi</w>
x á
lạc_ quan</w>
S áu</w>
en ko</w>
trợ_ giúp</w>
B ol
_th ần</w>
chân_th ành</w>
Li b
Thanh_ Niên</w>
tàu_ chiến</w>
l ương_thực</w>
Vĩnh_ Phúc</w>
h ố</w>
Th iện</w>
S a_
f acebook</w>
khá i_
m ơ_
thương_ vụ</w>
T oán</w>
ch ôn</w>
bước_ đi</w>
Đống_ Đa</w>
7 8</w>
ô n_l
Tr iều</w>
Gi ao_
phân_ giải</w>
ch ê</w>
199 3</w>
giải_ ngân</w>
d ỡ</w>
V n
Nhà _th
nghi_ vấn</w>
Phú_ Quốc</w>
tứ_ kết</w>
NS ƯT</w>
Giá ng_
m òn</w>
en_ ngợi</w>
ướ p_
cao_ đẳng</w>
E ri
nh ường</w>
C O
Liên_ Hợp_
đồ _chơi</w>
truy ện</w>
b ã
Se ou
hạ_ cánh</w>
A p
Tr ẻ</w>
t _thể</w>
8 3</w>
ởi_ vậy</w>
tranh_ cử</w>
Hồng_ Kông</w>
tiện_ ích</w>
Đ ồn</w>
M I
đình_ đám</w>
A ma
chọ n_l
phân_ công</w>
M B</w>
Trường_ Giang</w>
m ỹ
đặt_ hàng</w>
Thị _trường</w>
đố c_
199 4</w>
bùng_ nổ</w>
St ar
Pal est
gay_ gắt</w>
trí _tuệ</w>
Đ iện</w>
C B
199 6</w>
t u_
đảm_ nhận</w>
V ợ</w>
kh en_ngợi</w>
Hà_ Nam</w>
đồng_ loạt</w>
bình_t ĩnh</w>
N a_
lân_ cận</w>
d ương_
hiể n_thị</w>
ồn_ ào</w>
d ại</w>
nhập_ cư</w>
d y</w>
c us</w>
Ch ẳng_hạn</w>
Dịch_ vụ</w>
hào_ hứng</w>
E ver
i_d anh</w>
ta r</w>
A si
tự_ nguyện</w>
l ộc</w>
R T</w>
x úc_tiến</w>
Hoàng_ Sa</w>
l uy
ngày_ một</w>
30 /
chuyển_ biến</w>
tiền_ bạc</w>
t y_
m ặc_
J or
t ị_
báo_ động</w>
v óc_dáng</w>
í n_
th ái</w>
_l ĩnh</w>
v ắng_
d er</w>
ò_m ò</w>
thầy_ cô</w>
n ắm_bắt</w>
t ạm_
Tr ời</w>
it coin</w>
kiể u_
Ngọc_ Trinh</w>
đặc_s ắc</w>
T A</w>
mu n
H TX</w>
SL NA</w>
sở _thích</w>
em_ gái</w>
ườ i_
ài_ đặt</w>
ph u</w>
D .</w>
i_d ương</w>
mong_ đợi</w>
Mụ c_tiêu</w>
h ận</w>
bề_ mặt</w>
chi a_
a_h ạn</w>
so i</w>
Tì nh_trạng</w>
3 D</w>
thu_ mua</w>
kh iêu_
B uổi</w>
ư_l iệu</w>
S iêu</w>
Đ à</w>
_l ạnh</w>
ngưỡng_ mộ</w>
_nh ớ</w>
Đ ộ_
L ịch</w>
bất_ ổn</w>
bắt_ cóc</w>
bệnh_t ật</w>
j o
K CN</w>
cấp_ uỷ</w>
S ố
mã _lực</w>
B óng_
L ou
0 4</w>
tị_ nạn</w>
h ữ
t ia</w>
7 4</w>
Hồ_ Ngọc_Hà</w>
Eu ro
Li ga</w>
nước_ biển</w>
Palest ine</w>
_ K
s ao_
Viet nam
má i_t
mái_t óc</w>
A C</w>
L ượng</w>
tưở ng_tượng</w>
Nh ư_
đạ c</w>
duy ên_
s tr
u ỵ</w>
lậ p
k ề</w>
dị u</w>
e d_
ôn_l ậu</w>
A D</w>
E r
bài_t ập</w>
n_tr ưởng</w>
8 4</w>
C os
bước_ đầu</w>
khá t_
tiền_t ệ</w>
8 9</w>
ch iêu_
ru ồi</w>
hết_ mình</w>
b ra
W at
G -
é p_
hàng_ hải</w>
đất_ liền</w>
u_t ập</w>
n et
C A</w>
Q atar</w>
gian_ lận</w>
_C ity</w>
Khu ê</w>
phụ_ kiện</w>
cảnh_ quan</w>
s ăn_
ph ấn</w>
l uộc</w>
gi a_hạn</w>
áng_ gi
tì nh_t
liệt_ sĩ</w>
ay a</w>
Cử u_
bảo_t àng</w>
cảm_ biến</w>
g ol
mồ _hôi</w>
để _ý</w>
L ED</w>
n_đ iều_lệ</w>
ngoại_ ngữ</w>
c ốc</w>
L ai_
Qu ả
T ou
nhà_th ờ</w>
V ẫn</w>
rượ u_
d ũng_
trợ_ cấp</w>
tuy ết</w>
Đ ô
n_t ính</w>
z on</w>
m ệt</w>
Th ân</w>
phân_ loại</w>
199 1</w>
Gi ữa</w>
Đại_ biểu</w>
M el
ko v</w>
ưởng_ ứng</w>
s ườn</w>
h ấp_th
t ni
M us
từ _chức</w>
M a_
m á</w>
Mer c
s ữ
_P u
e_ S
kê _khai</w>
thường_ niên</w>
tư _thế</w>
đạ m</w>
6 0%</w>
Th i_
C ảng</w>
iễ u</w>
/201 3</w>
n ạ</w>
h am</w>
đồng_th uận</w>
L ục_
Ki ev</w>
ch âm</w>
nh ạt</w>
so ạn</w>
đ un</w>
D is
ườ n_
I m
o ái</w>
bu s</w>
Ho ạt_
H ọc</w>
y_tr ồng</w>
l ưỡi</w>
t áo</w>
ễ _
triệ u_tập</w>
Sản_ phẩm</w>
qua_ lại</w>
tỷ_ giá</w>
S ức_
Th ượng</w>
tự_t ử</w>
t ò_mò</w>
giớ i_tính</w>
tì nh_th
x ơ</w>
giả _
b ẫy</w>
u_đ ựng</w>
H uyện</w>
Gra b</w>
chu i</w>
a do
B ản_
nghĩa_ là</w>
th ủng</w>
hoà i_
chào_ đón</w>
_l ập</w>
w s</w>
15 %</w>
ề m_
T ên</w>
Bar ack_
Th ượng_t
u_tr ời</w>
i OS</w>
bến_ xe</w>
ri d
Ch ương</w>
u_h iệu</w>
bu ôn_lậu</w>
f f</w>
kh ép</w>
ngôn_ viên</w>
s ẻ</w>
đẹp_ mắt</w>
Đ ánh_
hình_ phạt</w>
v õ</w>
Tuy ết</w>
C i
chị u_đựng</w>
n àn</w>
S ar
T Q</w>
ò _
C D</w>
x ào</w>
th ấm</w>
vậ t_thể</w>
Ph ú
Barack_ Obama</w>
ngành_ nghề</w>
CN N</w>
D anh</w>
l am</w>
Ch ồng</w>
L G</w>
1. 500</w>
â n_tr
i t</w>
chu ông</w>
Sự_ việc</w>
Liên_Hợp_ Quốc</w>
x à_
Tu m</w>
giế ng</w>
yêu_ mến</w>
b ỗng</w>
nh ảy_
hoạ _sĩ</w>
câ y_trồng</w>
Đối_t ượng</w>
ch o_dù</w>
Seou l</w>
T el
Th ăng</w>
tự _chủ</w>
ộ c_th
ộc_th iểu_số</w>
vố n_điều_lệ</w>
an o_
Ph ố</w>
l ồng</w>
d ải</w>
lớ n_t
n_t iện</w>
dầu_ khí</w>
T B
_d ẫn</w>
Ă n</w>
L .
Toàn_ bộ</w>
dạy_ học</w>
tiềm_ ẩn</w>
S I
th ăng_
gia_ cầm</w>
c al
ỡ _ng
15 /
d ư
E U
t ất_
nh ọn</w>
g o</w>
KS ND</w>
h ung_
_h ấp</w>
tập_ hợp</w>
quy ển</w>
Th ời</w>
l ược</w>
g ừng</w>
Tu ổi_
hoang_ mang</w>
Tết_Nguyên_ đán</w>
L am_
TP P</w>
lã o</w>
ộ n_
Biên_ phòng</w>
th ưa</w>
b ỗng_
hiệu_ ứng</w>
Không_ những</w>
Công_ viên</w>
í _h
Tu ần_
N LĐ</w>
phân_ bón</w>
su y</w>
G P</w>
nhà_th iết_kế</w>
N a
Đ ỗ
198 0</w>
r in
B àn</w>
x ám</w>
v í</w>
_l ưỡng</w>
C ố_
Điệ n_lực</w>
lưu_ giữ</w>
Daily_ Mail</w>
Sóc_ Trăng</w>
U ni
ương_t ác</w>
hài_ hoà</w>
nh ững_ai</w>
Son y</w>
nuô i_dưỡng</w>
H al
tự_ xưng</w>
u_t ối</w>
_l ượng</w>
T ối_
ù a_
ng oà
nh ặt</w>
cá n</w>
A n_toàn</w>
S .</w>
trợ _lý</w>
se t</w>
nảy_ sinh</w>
r ay</w>
Ng ành</w>
mới_ mẻ</w>
K en
hộ p_
Công_th ương</w>
thương_t ích</w>
xo á_
ắc_ rối</w>
tuyể n_thủ</w>
d ày_
B ệnh</w>
8 7</w>
ngh èo_
Bá ch_
vinh_ dự</w>
ải_ rác</w>
_l uận</w>
B el
ti v
Tr ạch</w>
c an_
Đ ạo</w>
ỉ nh_th
thư_ giãn</w>
Chiế n_tranh</w>
vật_ dụng</w>
V ị</w>
lên_ đường</w>
1, 2</w>
Máy_ bay</w>
25 %</w>
k e_
B MW</w>
V òng</w>
P SG</w>
b iển_
B .</w>
c ài_đặt</w>
ch óng_
_th ai</w>
phần_ hoá</w>
m ía</w>
dân_t ộc_thiểu_số</w>
hoà nh_tráng</w>
độ_ phân_giải</w>
ỉnh_th oảng</w>
Mỹ_ Đình</w>
thất_ nghiệp</w>
m er</w>
At leti
Bị_ cáo</w>
r ải_rác</w>
M ạch</w>
lu ân_
o áng</w>
đồng_ bằng</w>
w er</w>
khai_tr ương</w>
ợ n</w>
r an</w>
t ế
phê_ bình</w>
trọ n_vẹn</w>
Sử _dụng</w>
B BC</w>
p ar
b al
Chuyên_ gia</w>
chăm_ lo</w>
ỷ_l ợi</w>
Kon_ Tum</w>
đối_ xử</w>
th ể</w>
Bạc_ Liêu</w>
lên_ án</w>
giao_ hữu</w>
F B
m ắc_
ngắn_ hạn</w>
bắt_ gặp</w>
ò_r ỉ</w>
độc_ quyền</w>
L àng</w>
ấm_ áp</w>
c ồn</w>
v ứt</w>
h à</w>
nhà_ cung_cấp</w>
In st
ề ng</w>
L iệu</w>
Nam_ Bộ</w>
M TV</w>
hô _hấp</w>
đoàn_ viên</w>
Hoạt_ động</w>
H ai_
Ph út</w>
Thu ế</w>
k è</w>
I C</w>
v án</w>
Hoàng_ Văn_
k ẹo</w>
V i</w>
tiểu_th uyết</w>
C at
iể n_tr
chứng_ cứ</w>
Bến_ Tre</w>
Nh i_
T ấn</w>
phản_ b
b ùn</w>
Đ oạn</w>
T ừng</w>
ti m_
đốc_ điều_hành</w>
a_h ồng</w>
F DI</w>
h ư</w>
In f
_th ực</w>
ố ng_tr
_th uật_
M ấy</w>
Vĩnh_ Long</w>
M ad
bất_ hợp_pháp</w>
M ôn</w>
AT GT</w>
Tổng_ Công_ty</w>
w or
On line</w>
os _
K ết_thúc</w>
nh ện</w>
tồ i_tệ</w>
đả o_
cấ m_
k i</w>
do ạ</w>
_ch u
bài_t oán</w>
Hiệ n_trường</w>
triển_ vọng</w>
ử i_
v ượng</w>
điều_ động</w>
Kh ả_
La_ Liga</w>
r òng</w>
công_ sức</w>
B iết</w>
B ác_
Phạm_ Thị_
T M
tiê u_h
áp_ đặt</w>
B ur
Ze aland</w>
chữ_ ký</w>
nh ỏ_
tim_ mạch</w>
v ân</w>
ô -
ch ăm</w>
đạn_ đạo</w>
sc andal</w>
hoàn_ chỉnh</w>
ường_ chứng_khoán</w>
Vĩnh_ Hưng</w>
lử a_
B ăng</w>
Lib ya</w>
_ số</w>
n én</w>
l ốc</w>
to án</w>
ng ưng</w>
Joh n
Sau di_
T D
yếu_ kém</w>
Colo mbia</w>
T y
ngo an</w>
an_t oả</w>
As sa
nhà_th ơ</w>
t_t iền</w>
ch a_
M ón</w>
đấ u_trường</w>
er i</w>
0 8</w>
J on
T ự
Th ạch</w>
S k
cổ_ phần_hoá</w>
S ir
h im
n i</w>
t ù_
Ri ch
_t ừ</w>
d ở</w>
Ser i
l ật</w>
r ắc_rối</w>
m ũ</w>
w n</w>
_Pu tin</w>
Ch ấp_
S ho
gi àn</w>
t ương_tác</w>
Châu_ Á</w>
Điện_ Biên</w>
O ld_
Tr ưng</w>
c ọc</w>
2 2
Nguyễn_ Đình_
thà nh_th
iềm_ chế</w>
lực_ lượng_vũ_trang</w>
a _trang</w>
quố c_t
r am
n ắp</w>
l ôi_
qu ay_
ầ u_trời</w>
đ ếm</w>
cố_ vấn</w>
ch iên</w>
Hoàng_ Mai</w>
c ộ
SC O</w>
m ùng</w>
sụ t_
c_th ẩm</w>
Đắ k_
th ủ_tướng</w>
gi a_s
A li
Th ức</w>
pp o</w>
New_ Zealand</w>
bản_ chất</w>
9 1</w>
xuất_ huyết</w>
ờ n</w>
l ap
uni ch</w>
t ám</w>
l ộn</w>
m ươi</w>
giản_ dị</w>
tiếp_th u</w>
en o
_th ừa</w>
Vladimir _Putin</w>
p or
ưa_ chuộng</w>
kho ác_
Dù _vậy</w>
10 ,
nghiệ t</w>
r e</w>
3 6,
2- 1</w>
bản_ án</w>
Chỉ _huy</w>
công_ vụ</w>
x ông</w>
_chu ẩn</w>
V ạn_
G Đ</w>
h ụt</w>
giá n_đ
kh iếp</w>
thu ỷ</w>
D u</w>
sạch_ sẽ</w>
b on</w>
gi ết_
kiể m_toán</w>
chủ _ch
điề u_t
Kho ản</w>
k iềm_chế</w>
h é</w>
Tiế p_tục</w>
lên_ ngôi</w>
đè n_
s ét</w>
_th ể
thoả_ mãn</w>
nhân_ đạo</w>
ao _tr
ol y
Đồng_ chí</w>
đ ắn</w>
thể _loại</w>
r ò_rỉ</w>
H D
xâm_ hại</w>
X i
L an
CT CP</w>
T ám</w>
l an_toả</w>
gợi_ ý</w>
C .
e th
7 .000</w>
t_th anh</w>
c e_
mô i_
nghệ _nhân</w>
3 G</w>
ngăn_ cản</w>
25 -
dung_ lượng</w>
th ang</w>
Le e</w>
khoác_ áo</w>
th ao_t
thủ_ công</w>
tha nh_th
sơ _sinh</w>
trầ m_trọng</w>
mưa_ lũ</w>
S P
thuậ n_tiện</w>
l e_
lửa_ đạn_đạo</w>
l i</w>
Saudi_ Ara
ó t_
Thanh_ Xuân</w>
d ược_
Hoàng_ gia</w>
l au</w>
sinh_ vật</w>
thể _lực</w>
Mo bi
V ùng</w>
khám_ chữa</w>
m_tr ai</w>
e x
C ựu</w>
phim_tr uyền_hình</w>
đột_ biến</w>
qu ái</w>
tho áng</w>
le t</w>
b ề</w>
điều_ khoản</w>
B ảy</w>
Gi ó</w>
n a
h ưởng_ứng</w>
khám_ nghiệm</w>
gh ét</w>
Bl ack
S D
Ph ủ</w>
Bình_ Phước</w>
chất_ độc</w>
t ù
ar d_
gắn_ kết</w>
v ô</w>
lâu_ nay</w>
I P
tr ắ
a _trị</w>
Th ầy</w>
ấu_ cơ</w>
diễ n_tập</w>
t ư_liệu</w>
nộ i_t
r út_
D e_
ac o</w>
_t iết</w>
ỏ i_
l d</w>
ed er
kiế n_tạo</w>
ch ật_
x ây_
ung_ l
sắc_ đẹp</w>
A .
lắp_ ráp</w>
tối_ cao</w>
Cô ng_trình</w>
ần_ dần</w>
ra_ lệnh</w>
ng ừng_
tầ ng_
khẩ u_
s ĩ_quan</w>
Nguyễn_Thị_ Kim_
a lo
sai_ sót</w>
B ec
th ánh</w>
mật_ ong</w>
Ng ược_lại</w>
9 6</w>
And re
c ương_vị</w>
ag ram</w>
s óng_
A z
cô ng_thức</w>
chữ a_trị</w>
H án</w>
lã o_
mệnh_ danh</w>
chủ_ quan</w>
We nger</w>
chất_ béo</w>
áng_gi ềng</w>
xâm_ phạm</w>
góp_ ý</w>
th ẻ_
ch ồng_
i_tr ời</w>
hiệ u_trưởng</w>
thủ _lĩnh</w>
tâm_tr ạng</w>
thu_ gom</w>
ch ốn</w>
r ùa</w>
_ F
l ặ
b ền</w>
ê m_
hành_ nghề</w>
tự_ ý</w>
Báo_ chí</w>
C úc</w>
Tu r
ệ n_tập</w>
tận_ hưởng</w>
9 8</w>
n_tr ợ</w>
phán_ quyết</w>
kho a_
U y</w>
sk y</w>
c ư
ổ_ số</w>
Gi a</w>
N u
Tiểu_ học</w>
trình_ báo</w>
m_tr ùng</w>
chủ_ch ốt</w>
Biển_ Đông</w>
_c ột</w>
h ay_
P ri
đ uối</w>
kháng_ chiến</w>
li ves
anh_tr ai</w>
hi_ vọng</w>
P H
L ưu</w>
ạt_ nhân</w>
il l</w>
tiếng_ nói</w>
cổ_ điển</w>
định_ kỳ</w>
Th í
ăn_ mặc</w>
chứ c_trách</w>
S pu
l áng_giềng</w>
rộng_ lớn</w>
m ười</w>
Mi ura</w>
B ul
chứng_ chỉ</w>
G er
gặp_ mặt</w>
ban_ đêm</w>
o v</w>
V A
o g
tr ùng</w>
âm_ mưu</w>
danh_ dự</w>
n ati
il a</w>
20 30</w>
os a</w>
Merc ed
s úng_
ồ ng_tr
mô n_
con_ cháu</w>
nhân_ chứng</w>
n_ kém</w>
nước_ mắm</w>
dự_t oán</w>
th ắp</w>
mỹ _nhân</w>
khái_ niệm</w>
B ill
ễ n</w>
l ạnh_
c òi</w>
đầu_ ra</w>
e w</w>
M ới</w>
V i_
0 0-
ph ẩm_
D am
s ổ_
C am_
M H
4. 0</w>
dễ _thương</w>
tâm_ hồn</w>
trụ _cột</w>
H en
s ter
Th iết_kế</w>
uỷ_ quyền</w>
Đ ội_
pro tein</w>
Long_ Biên</w>
NS ND</w>
Ba_ Đình</w>
2 1
vợ _con</w>
phân_ bố</w>
màn_ ảnh</w>
C ấp</w>
Đ ô_
kỹ _lưỡng</w>
t on
môi_ giới</w>
ọ _
x ấu_
Nguyễn_ .</w>
nhân_t ố</w>
ch áo</w>
tiểu_ bang</w>
Cri me
quá _
d s</w>
lo_ sợ</w>
v is
th ửa</w>
gi ật_
A R
x át</w>
rõ_r ệt</w>
Đ ịnh_
8 .000</w>
Tr af
Holly wood</w>
ch én</w>
K -
t ộ
anh_ chị</w>
10 00</w>
Cầ u_thủ</w>
Gi ai_
đại_ hoá</w>
a_h át</w>
b ận</w>
Tr uyền_hình</w>
bùng_ phát</w>
_t ang</w>
hoạ ch_
ho ả
Đan_ Mạch</w>
lời_ nói</w>
AN TĐ</w>
s âm</w>
S il
máy_ ảnh</w>
đ ũa</w>
ng_l ẽ</w>
D iệ
r ừng_
9 3</w>
bình_ yên</w>
T ú_
thị nh_
mạ nh_
X II</w>
lấn_ chiếm</w>
n ôn</w>
Ch ẳng</w>
tố n_kém</w>
n_tr ì</w>
h iếm_
kh ung_
th ìa</w>
el _M
M áy</w>
el d</w>
luy ện_tập</w>
sa _th
s te
thiếu_ nhi</w>
ngoà i_trời</w>
Nguy ệt</w>
Hoàn_ vũ</w>
g ốm</w>
Bà_ Trưng</w>
ầ y_
Ch ủ_
gi ò</w>
H ill
qu anh_
f e</w>
_r ể</w>
L ao_
W est_
e t_
ảnh_ gia</w>
Tây_ Ninh</w>
v ượt_
Hai_ Bà_Trưng</w>
i a_
x ay</w>
E VN</w>
tên_ lửa_đạn_đạo</w>
L ộc_
Saudi_Ara bia</w>
gi ó_
kiểm_ định</w>
đ ọng</w>
t ầm_
báo_ giới</w>
G ò
ph u
u_tr ợ</w>
việ n_trợ</w>
ng_t ư</w>
tầng_ lớp</w>
x i_
m âm</w>
Spu tni
198 8</w>
nhãn_ hiệu</w>
lã nh_
n_l ời</w>
Công_ đoàn</w>
Đàm_ Vĩnh_Hưng</w>
l í
t t
g en
gh en</w>
nhiễ m_trùng</w>
ph ú
nguy _
d ưỡng_
0 6</w>
riê ng_tư</w>
Kh ô
Thanh_ Vân</w>
Thống_ kê</w>
li ng</w>
u_ nhân</w>
sơ_t án</w>
tâm_ huyết</w>
vào_ vai</w>
B T</w>
A N</w>
S E</w>
L àm_
z e
Gi ống</w>
n_th ắng</w>
chăm_ chỉ</w>
o_th ủ</w>
Old_ Traf
x ắn</w>
thầ n_tượng</w>
r ước</w>
chủ _lực</w>
b lo
b ày_
đúng_ đắn</w>
X anh</w>
đến_ nơi</w>
B ig
t ưới</w>
bí_ quyết</w>
g er</w>
ph ẳng</w>
lý _thuyết</w>
VN .</w>
t úi_
2- 0</w>
Thủ_ Đức</w>
g e_
Qu ế_
198 9</w>
G h
F re
kim_ cương</w>
lục_ địa</w>
Thay_ vì</w>
Nh ất_
Old_Traf ford</w>
t d</w>
V ợ
Ch ánh_
x ít</w>
ngo n_
b ầu_trời</w>
mạ o_
L ạc</w>
Ti n_t
ư u_thế</w>
đ ụng_
th ô
r âu</w>
e tr
1 A</w>
Ch ân</w>
You Tu
M adrid</w>
R AM</w>
C hàng</w>
C C
al i</w>
s ư
2 2.
b in</w>
t ắc</w>
L iêm</w>
a xit</w>
N ăng_
hoang_ dã</w>
độ i_trưởng</w>
lượt_ đi</w>
hiện_th ực</w>
Crime a</w>
l ót</w>
ư_ đoàn</w>
30 0.000</w>
x ô</w>
khoáng_ sản</w>
ho i</w>
k iều</w>
S im
tư_ pháp</w>
Thiếu_t ướng</w>
_tr ú</w>
v ành_đai</w>
Assa d</w>
gol f</w>
1 30</w>
co i_trọng</w>
Tạ p_chí</w>
th ảo</w>
Đông_ Nam</w>
con_ em</w>
đ ích_th
D òng</w>
kiểm_ điểm</w>
H D</w>
đa_ khoa</w>
Tân_ Sơn_
Ả _R
il la</w>
T H</w>
c ục_
x ẻ</w>
Phan_ Văn_
sk i</w>
Cuộ c_
Thí _sinh</w>
T ay
miễn_ dịch</w>
mạ i_
b i_
x ích</w>
e m_trai</w>
c ụ
h ẻ
S en</w>
tr ăm_
a ch
ng_ hoàng</w>
3, 5</w>
c a_hát</w>
Cửu_ Long</w>
on s</w>
đoà n_thể</w>
Cận_ Bình</w>
tr ực</w>
hiện_ đại_hoá</w>
Quy_ định</w>
3 50</w>
khủng_ khiếp</w>
Thu ỳ
sụt_ giảm</w>
Th iếu_
ế ch</w>
n_ n
Hoài_ Linh</w>
Ga al</w>
Khô ng_thể</w>
po p</w>
B as
hữu_ cơ</w>
P VN</w>
tín_ nhiệm</w>
Â m_
Ngh ệ_th
đại_ hội</w>
Vợ _chồng</w>
Sou th
H ỗ
giải_tr ình</w>
R es
Manchester _
C a_sĩ</w>
d ưa</w>
quả _tang</w>
Nghệ_th uật</w>
nhà_ nghỉ</w>
Bộ _luật</w>
nh ôm</w>
Trung_ Hải</w>
ngoạ i_tình</w>
B ố</w>
chỉnh_ sửa</w>
t ỉnh_
M S</w>
gi ặt</w>
u ri
L C</w>
độ ng_tác</w>
Lao_ Động</w>
p os
l ùng</w>
R ol
Sơn_ Tùng</w>
R õ_r
lo ri
_M o
dự_ bị</w>
thị_tr ường_chứng_khoán</w>
T C
b o</w>
Rõ_r àng</w>
J er
s ư_phạm</w>
t y
H N</w>
nh _thể</w>
kho áng</w>
L ấy</w>
Trần_ Đại_
Inst agram</w>
Bang ko
t ử</w>
ho a_hồng</w>
là m_th
m in
SC L</w>
ak a</w>
cố_ ý</w>
r ộ</w>
địa_ hình</w>
H oài</w>
Q L</w>
T ỷ_lệ</w>
kích_ hoạt</w>
v ú</w>
quy_t ắc</w>
dây_ chuyền</w>
Tổ ng_th
chú ng_
c ưng</w>
15 .
12 ,
M iền</w>
Th ư_ký</w>
N ad
giới_ chức</w>
YouTu be</w>
ng ọc</w>
sa_th ải</w>
c_ ngủ</w>
Chứng_ khoán</w>
máy_ b
N V</w>
vừa_ rồi</w>
mặt_ nạ</w>
công_ chúa</w>
vĩ_ đại</w>
Gro up</w>
C er
cư _trú</w>
n ô
Đ àn_
mơ_ ước</w>
hữu_ ích</w>
C y
Xuân_ Trường</w>
vắng_ mặt</w>
à i_trợ</w>
làng_ nghề</w>
Công_ việc</w>
đánh_ bạc</w>
cổ _truyền</w>
l av
ề nh</w>
r on</w>
kế_t oán</w>
th â
l _
sống_ sót</w>
Chấp_ hành</w>
Chiế n_lược</w>
kháng_ sinh</w>
í_h ạt_nhân</w>
ch ol
mạo_ hiểm</w>
trước_ hết</w>
ĐB SCL</w>
Đ B</w>
lú n</w>
ngày_ mai</w>
Ph ạm</w>
D an
P GS</w>
V ND</w>
cứ u_trợ</w>
m ác</w>
Hợ p_tác</w>
d es</w>
V iết_
là n_s
làn_s óng</w>
Đ ăng</w>
Alex and
C en
c ỗ</w>
tr ì
d ạn</w>
ch ăn</w>
nhà_ ga</w>
Kỳ_ Duyên</w>
mu ỗi</w>
địa_ phận</w>
en_th ưởng</w>
th ềm</w>
9 X</w>
gian_ hàng</w>
hoạ _tiết</w>
hàng_ rào</w>
thế _ch
danh_t ính</w>
m ư
l ữ_
Đ ang</w>
ati on</w>
vừa_ phải</w>
c at
B ằng_
nh át</w>
kỹ _thuật_
Tân_Sơn_ Nhất</w>
l ật_
ch ảo</w>
p .</w>
riê ng_
y e
es tiv
Nhà_ báo</w>
Ch áu</w>
b ơ</w>
hoa_ quả</w>
M ộc_
thủ _thành</w>
đ èo</w>
l ặp</w>
uy ễn</w>
r ễ</w>
Am er
o_d ưỡng</w>
Jos e_
tr iều</w>
xếp_ hàng</w>
s ương_
vũ_kh í_hạt_nhân</w>
v ách</w>
đ ậm_
Ninh_ Thuận</w>
LĐ LĐ</w>
Gi ọng</w>
v ạch</w>
id i
H ướng_
Kh ải</w>
làm_ quen</w>
kiê n_trì</w>
se xy</w>
J us
r ong</w>
w al
PG S.TS</w>
Căn_ cứ</w>
e x</w>
m ưu_
TT g</w>
x inh</w>
18 -
nhân_ văn</w>
cầm_ quân</w>
tủ _lạnh</w>
P ra
p h</w>
en ce</w>
ổ ng_
Ch ế_
M ời</w>
0 9</w>
g ầm</w>
nh ất_th
ra_ quân</w>
Đ ộc_
ar e</w>
ĐB P</w>
Hậu_ Giang</w>
19 45</w>
khuôn_ viên</w>
_th ù</w>
phê _chuẩn</w>
C ụ</w>
ngh ênh</w>
nhân_ dịp</w>
_ch í</w>
m ìn</w>
ưu_ điện</w>
iê m_t
O s
o_tr ạng</w>
đá _
k s</w>
Quy ết</w>
vinh_ danh</w>
kh u_tr
l ốp</w>
quốc_t ịch</w>
ìn_ giữ</w>
th ảm</w>
Y am
n_thu ần</w>
liên_ bang</w>
ngườ i_tình</w>
Bayer n</w>
D ự_th
trung_th ành</w>
Dự_th ảo</w>
quan_ ngại</w>
l ăn</w>
nghệ _sỹ</w>
ch iêm_
tức_ giận</w>
xu ôi</w>
n iên_
l and
đơ n_thuần</w>
m anh</w>
t ần_
Ư ớ
n_th ất</w>
thành_ quả</w>
B ởi_vậy</w>
_s uất</w>
đ ườ
thăm_ hỏi</w>
tâm_th ần</w>
Lai_ Châu</w>
bản_ sắc</w>
ũng_ nên</w>
s iết</w>
t ích</w>
_c ung</w>
du_ học</w>
UN E
_t ự</w>
ỡ_ng àng</w>
to ạ_
r uộ
c ài</w>
th ị</w>
điều_t iết</w>
c uốn_
d ung_t
c ò</w>
B ĐBP</w>
Ch ất_
sinh_ sản</w>
p_ đổ</w>
198 2</w>
M ay</w>
ứ a_
tí n_đồ</w>
dũng_ cảm</w>
phú c_thẩm</w>
h iền_
cu ồng</w>
gó c_độ</w>
Olympi c_
chiề u_tối</w>
L ạc_
m ê_
ng ỏ</w>
tộ i_danh</w>
cà_ chua</w>
th iện</w>
Đ àn</w>
D iệu_
l ăng_
xe l</w>
chóng_ mặt</w>
v ĩnh_
9 7</w>
D C</w>
khắc_ nghiệt</w>
K iế
201 6-
tiểu_ đường</w>
bố c_
G lo
m l</w>
an s
cao_t uổi</w>
r áo</w>
T E
t ạ</w>
m ềm_
Đ iề
Nghĩ a_
Sh i
Võ_ Văn_
_s i
U yên</w>
Nguyễn_ Tr
l es</w>
Ch ùa</w>
Ban_ Chấp_hành</w>
ng uộ
Bác_ Hồ</w>
al is</w>
No te</w>
R O</w>
s ỏi</w>
cô_ đơn</w>
nhà_ vệ_sinh</w>
g y
h ung</w>
15 .000</w>
nh_tr uyền_hình</w>
J .
1- 1</w>
chiến_đ ấu_cơ</w>
m ài</w>
ố n_
liên_ ngành</w>
qu át</w>
Sco t
S iêu_
ống_ kính</w>
pháo_ hoa</w>
F ab
Thông_ qua</w>
cất_ cánh</w>
198 6</w>
l ề</w>
Hà m_
tử _cung</w>
S m
Bo e
N ạn_nhân</w>
k el</w>
ế_t ắc</w>
ồ i_
x ướng</w>
9 4</w>
l ộng_
N av
kh ôi</w>
ng_t uyển</w>
T àu_
Tiền_ Phong</w>
p a</w>
s ông_
sổ_ đỏ</w>
L I
Gran d_
T B</w>
Hu ng
bộ_ đội</w>
Bình_ Minh</w>
D ar
0 7</w>
VN -
Th ánh_
Danh_ sách</w>
t ước</w>
Ch ile</w>
giấ c_ngủ</w>
phân_ bổ</w>
đa_ phần</w>
Manchester_ United</w>
n_t ốc</w>
Ngh i</w>
rào_ cản</w>
ê_b ối</w>
J a
y -
20 .
lan _truyền</w>
e k</w>
4 0.000</w>
T M</w>
ước_t iến</w>
c ũng_nên</w>
n e_
Tr a
g ai</w>
bộ_ môn</w>
V ừa_
qu ầy</w>
dị_ ứng</w>
Tăng_ cường</w>
16 -
T ạ_
Sh in
_d anh</w>
R y
ch ửi</w>
Dầu_ khí</w>
c ướp_
Ch uyến</w>
so n_
24 /
20 21</w>
I v
Inter nati
trẻ_ con</w>
biên_t ập</w>
siêu_ mẫu</w>
Thừa_ Thiên</w>
ỉ m</w>
lo ại_trừ</w>
đường_ ống</w>
u ỹ</w>
thông_t ấn</w>
khu ng_thành</w>
v àng_
H iến_pháp</w>
bá ch</w>
ưởng_ đoàn</w>
thủ_ đoạn</w>
Jong- un</w>
b ất</w>
đảm_ nhiệm</w>
Ngh ệ</w>
b é
ngày_ đêm</w>
ch ọi</w>
ch_l uỹ</w>
Biên_ Hoà</w>
Ber n
th èm</w>
hội_ viên</w>
H oàn</w>
M ậu_
ồ _
ữ _liệu</w>
20 /
văn_ nghệ</w>
Nh ằm</w>
vĩ_ mô</w>
g ìn_giữ</w>
l a_
t án</w>
mặt_ nước</w>
z i
th uyền_
Đ ất_
ghi_ hình</w>
K .</w>
Kh ách</w>
bất_ đồng</w>
giúp_ việc</w>
/201 2</w>
T ăng</w>
B í_
nhà_ phân_tích</w>
M it
19 -
Đánh_ giá</w>
b an
l á
tổ n_thất</w>
ir o</w>
iêm_t ốn</w>
ghi_ nhớ</w>
N ik
qu ạt</w>
thể _chế</w>
G óc</w>
Exp ress</w>
N ằm</w>
Nguyễn_ Thành_
v ác</w>
_r ơi</w>
xã_hội_ hoá</w>
o_d ỡ</w>
S ư_phạm</w>
phá t_t
kẻ _thù</w>
d ần_dần</w>
S ách</w>
Bayer n_M
S to
chuyên_ đề</w>
ó m_
Pos t</w>
mị n</w>
ý _chí</w>
mạ ng_
Ngoại_ hạng</w>
Ch ương_
V id
s ưng</w>
định_ giá</w>
13 .
Th ông_th
cơ_ động</w>
đ ắm</w>
r ụng</w>
Fran c
D es
am il
14 .
g ợi</w>
K a
b ế_tắc</w>
w an
T W</w>
W on</w>
: 00</w>
ho ạn</w>
tr uy</w>
Par k_
tha _th
t ay_tr
kh iêm_tốn</w>
tí ch_luỹ</w>
th áo</w>
khởi_ kiện</w>
cấp_ độ</w>
C R
N V
a_s ỹ</w>
UNE SCO</w>
họ ng</w>
b uộ
F one</w>
bất_ lợi</w>
pho ng_thuỷ</w>
g us
B ắt_
nh ư_
iếp_ dâm</w>
Angel a_
_m àn</w>
m_t uổi</w>
_th oái</w>
H S
n ấy</w>
b ước_tiến</w>
V inh_
cho_ nên</w>
tậ n_t
x ổ_số</w>
cuộc_ gọi</w>
NG UY
Sputni k</w>
S ống</w>
Thông_th ường</w>
Phật_ giáo</w>
1/ 3</w>
S A
thá o_dỡ</w>
h 00</w>
m ũ
B os
Ama zon</w>
bộ _trưởng</w>
thương_ mại_
lớ n_
qu ật</w>
nhậ n_lời</w>
m el
V ĩnh</w>
nấu_ ăn</w>
n_th ần</w>
cao_t ầng</w>
sụ p_đổ</w>
V Đ</w>
c ận_
đầu_ bảng</w>
cầm_ quyền</w>
thầy_ giáo</w>
người_ phát_ngôn</w>
14 -
a i_t
a_ cạnh</w>
bu ông</w>
Ch ri
Nguyễn_ Phú_
g ạt</w>
ao ke</w>
Tin_t ức</w>
ch éo</w>
quá n_
J en
kiểu_ dáng</w>
v ọt</w>
th i_tuyển</w>
tang_ vật</w>
v ụ
ào_ lưu</w>
ây_ phút</w>
O sc
trong_ sáng</w>
Tu ần</w>
N ig
Kur d</w>
Điề u_tr
Tuyên_ bố</w>
I l
us e</w>
tr ấn_
13 ,
xo áy</w>
nhận_ diện</w>
n ương</w>
lưu_ niệm</w>
ìa_ khoá</w>
g am</w>
Ir eland</w>
b ún</w>
s i</w>
trầm_ cảm</w>
l ấn</w>
d ư_
Osc ar</w>
uộ m</w>
B an
uy ển_
US S</w>
tạo_ hình</w>
F eder
đệ m</w>
ti vi</w>
Te ch
Ab e</w>
ạ n_thảo</w>
Tu ất</w>
l en</w>
VOV. VN.</w>
lớn_t uổi</w>
cố t_
198 7</w>
sân_ vận_động</w>
kh éo</w>
n a_
P A</w>
V is
ẽ _
F al
b ol
H TC</w>
k in
ôn_ luôn</w>
h ứng_
N ữ_hoàng</w>
gia_s úc</w>
Kh ác</w>
suy _thoái</w>
kh í_th
ar ez</w>
khí a_cạnh</w>
đạ i_t
tuyển_ chọn</w>
nước_ ngọt</w>
c ối</w>
bả o_dưỡng</w>
ng ỡ_ngàng</w>
đồng_t ính</w>
ứ _sở</w>
b óc</w>
197 0</w>
Bayern_M unich</w>
tu m</w>
In tel</w>
1 10</w>
d iện_
Đ ỏ</w>
Đô _thị</w>
r on
nh_tr ị_
xinh_ xắn</w>
Pháp_ luật</w>
Nguyễn_ Quốc_
tiên_ phong</w>
m er
Đ ền</w>
Giáng_ sinh</w>
d ép</w>
mu ỗng</w>
biến_ chứng</w>
xoá_ bỏ</w>
nh -
t ất_nhiên</w>
Th ịt</w>
ạng_ rỡ</w>
linh_ kiện</w>
.0 00.000</w>
B L
tr ă
Th ay</w>
H el
nhà_ chức_trách</w>
C ao</w>
u_đ ặn</w>
qu en_
C ổ</w>
Sinh_ viên</w>
.0 00-
cuốn_ hút</w>
a ho
lưu_ lượng</w>
cấu_ hình</w>
Đ ặc_
bắt_ mắt</w>
ân_ chương</w>
sơ_ bộ</w>
táo_ bạo</w>
tưởng_ niệm</w>
V ài</w>
Nguyễn_ Quang_
t an
M ur
Thanh_ Hà</w>
đau_ khổ</w>
u_d àng</w>
f a
i_d âm</w>
b ê_bối</w>
ne ws</w>
b ào_
so ạn_thảo</w>
đ iên</w>
chấn_ chỉnh</w>
nồng_ độ</w>
K an
2 6
thu ỷ_lợi</w>
hiệp_ định</w>
l í</w>
Đơn_ vị</w>
công_ cuộc</w>
gi am_
z e</w>
C ung_
tho ái</w>
xo ắn</w>
24 -
Kh ởi_
mạ i_dâm</w>
/ VOV.VN.</w>
hội_ đàm</w>
hiện_ vật</w>
th ác</w>
n es</w>
c er
C úp_
Diễn_ viên</w>
CA ND</w>
V. League</w>
r ạng_rỡ</w>
p_t ác_
i ng_
ảy_ máu</w>
cá _tr
Nghệ _sĩ</w>
ĐB QH</w>
Phát_ hiện</w>
đặt_ chân</w>
tà i_tử</w>
phá_ hoại</w>
o li
B ốn</w>
L S</w>
h iếu_
ar t</w>
M ùi</w>
hoan_ nghênh</w>
mắc_ kẹt</w>
Ma z
23 -
thua_ lỗ</w>
tu be</w>
d ặm</w>
ngừng_ bắn</w>
phong_t oả</w>
J an
16 0</w>
k s
chu_ đáo</w>
Trần_Đại_ Quang</w>
i_tr uyền_hình</w>
l ạ_
ph ở</w>
gi òn</w>
l ường</w>
cầ u_th
Thống_ Nhất</w>
Ho ặc</w>
đ ục</w>
công_ đoàn</w>
m ạ</w>
bồ i_
mà_ lại</w>
aw a</w>
Trung_ Bộ</w>
Cao_ đẳng</w>
d ầ
Qu ảng</w>
H an
Bùi_ Văn_
phẩm_ chất</w>
thông_ số</w>
c ự</w>
đương_ nhiên</w>
p_tác_ xã</w>
úp_ bê</w>
em en</w>
d ê</w>
chào_ mừng</w>
bày_ bán</w>
g ấu</w>
bì a</w>
Thiên_ Huế</w>
Ch inh</w>
Y ến_
n_tr ùng</w>
VP F</w>
k ệ</w>
nguộ i</w>
Kinh_ doanh</w>
er son</w>
trả_ giá</w>
học_ hành</w>
F in
độ c_t
M ir
Ro y
âm_ lịch</w>
th ổ
Ng ôi_sao</w>
s ếp</w>
bảo_ hộ</w>
16 .
thiết_ yếu</w>
17 -
Tr u
ọn_ dẹp</w>
ca_ ngợi</w>
Cao_ Bằng</w>
bắt_ nguồn</w>
V ị
s ay_
F estiv
tr ên_
nghĩ a_trang</w>
t em</w>
tối_ ưu</w>
le y_
cá o_trạng</w>
dị u_dàng</w>
ph ản</w>
huỷ_ bỏ</w>
chuy ên_tr
cổ_ động_viên</w>
đ ẫm</w>
D ani
suy_ yếu</w>
Sh a
o_th ang</w>
đề u_đặn</w>
khu ất</w>
kết_ cấu</w>
d â
lập_ công</w>
lap top</w>
hiếm_ hoi</w>
bài_ bản</w>
Ser ge
i on</w>
ung_th u</w>
đố n</w>
L as
Qu án_
H ợp</w>
9 .000</w>
Y u
k í</w>
sương_ mù</w>
Đ ôi</w>
P L
Tử _
ng ần_
U td</w>
S uốt</w>
nh_tr ùng</w>
địa_ lý</w>
Ph ụ
Đ ôi_
Phần_ lớn</w>
Sp or
Đ ằng</w>
đ ùi</w>
ngày_ xưa</w>
Nhân_ dịp</w>
ng a</w>
le o_thang</w>
phầ n_tử</w>
m ad
t el
tố _t
N et
khối_ u</w>
N X
di o</w>
Y êu</w>
c ớ</w>
chú _rể</w>
kh en_thưởng</w>
Tiền_ vệ</w>
c_s ư</w>
198 5</w>
lo gi
la s</w>
hối_ lộ</w>
Pe tro
túi_ xách</w>
bá u</w>
m ent</w>
i_t ụ</w>
Thượng_ Hải</w>
p a_
Ch ân_
k ì
Y emen</w>
S ab
Vu a_
ph ì</w>
tr iết_
đ ờ
28 -
kh ôn_
K .
C risti
m_th áng</w>
P ro</w>
c_ n
Ph óng_
18 0</w>
tuyên_ phạt</w>
TN O</w>
A h
ki ng</w>
đ è</w>
lu ôn_luôn</w>
n an</w>
minh_ chứng</w>
h ôi</w>
13 -
C ơ</w>
do l</w>
Tu ổ
phá t_thanh</w>
m í</w>
us h
n ới</w>
AT M</w>
Jor dan</w>
Hỗ _trợ</w>
trở_ ngại</w>
G az
Thừa_ Thiên_Huế</w>
hiệu_ suất</w>
khí_ đốt</w>
ướ i_
sâu_ rộng</w>
hạt_ giống</w>
ái_t ạo</w>
xu _thế</w>
Ukra ina</w>
O ne</w>
y_ học</w>
x ứ_sở</w>
x ỉ
thiếu_ nữ</w>
giật_ mình</w>
4 G</w>
m ầm</w>
o_th eo</w>
V ol
Th ị</w>
ĩ _nhiên</w>
truy_ nã</w>
kar aoke</w>
ph iền</w>
th iện_
1 1,
b ã</w>
ch ết_
it h</w>
t ỷ
quần_ chúng</w>
2 1-
Đ ứng</w>
ng_t ài</w>
ngần_ ngại</w>
tuy ên</w>
ch ảy_máu</w>
ph ế
Thuỳ _Linh</w>
P le
Bangko k</w>
Vietnam_ Airlines</w>
quyền_ hạn</w>
Bình_ Thạnh</w>
ag o</w>
n ốt</w>
d ọn_dẹp</w>
biệt_ danh</w>
h ả
riêng_ biệt</w>
nhà_t ài_trợ</w>
Bóng_ đá</w>
27 -
dày_ đặc</w>
trú ng_tuyển</w>
S el
Chiến_ dịch</w>
thư_ viện</w>
Sự_ kiện</w>
đặc_ nhiệm</w>
G al
Ch úc</w>
N is
ung_l ũng</w>
khí_th ải</w>
đại_ sứ</w>
hoà_ giải</w>
A w
N úi</w>
C ái_
19 .
tă ng_t
at ia</w>
thế_ch ấp</w>
s im</w>
M ười</w>
Hung ary</w>
S A</w>
Tiền_ đạo</w>
ký_ ức</w>
te ra</w>
đại_ chúng</w>
U V</w>
nhận_ biết</w>
lưu_ hành</w>
cưỡng_ chế</w>
D ậu</w>
M ông</w>
n_th ưởng</w>
Chỉ _thị</w>
chính_ đáng</w>
cảm_ ứng</w>
Lu ân</w>
ch ạ
thuỷ _thủ</w>
D .
khuy a</w>
m ini</w>
n_th ành</w>
v ấp</w>
giá p_
bảo _trì</w>
ỏ m</w>
ết_ điểm</w>
C ăn</w>
ỡ _
Trà_ Vinh</w>
t ái_tạo</w>
t ị
ngoạ i_th
B V
B itcoin</w>
tình_t iết</w>
n ap
Nội_ Bài</w>
t inh</w>
phản_ cảm</w>
T ướng</w>
ko vic</w>
H P</w>
_h ại</w>
n_l ược_
lu m</w>
mạ ch_
Th ường</w>
7 0
thủ_ phạm</w>
Boe ing</w>
Th e
ai_t ây</w>
Ale ppo</w>
tác_ hại</w>
y s
st ar
H aw
ng ặt</w>
chuyển_ hoá</w>
an -
Có _
phải_ biết</w>
r ã</w>
trang_ sức</w>
mộ c</w>
quý_ giá</w>
50 0
nh ái</w>
m_th u</w>
Đầu_t iên</w>
quay_ phim</w>
k iệt</w>
Kh ách_
d ặn</w>
B ID
g ậy</w>
chiế n_sỹ</w>
thu_h ẹp</w>
Đ K
an_ sinh</w>
khả_ quan</w>
b ừng</w>
ẽ n</w>
tiêm_ kích</w>
l es
V it
n ọ</w>
Liên_ hiệp</w>
n_đ ài</w>
thuy ề
kh am</w>
khá nh_thành</w>
cá nh_tay</w>
th a</w>
n_tr ạng</w>
h ang_
id es</w>
ca_ nhạc</w>
cuộ n</w>
th ỉnh_thoảng</w>
Quân_ khu</w>
su b
sá t_th
hi t</w>
vô_ số</w>
ể_ nào</w>
Diễ m_
ch ìa_khoá</w>
xa_ lạ</w>
dầu_ mỏ</w>
l ẻ</w>
Trái_ đất</w>
phá _sản</w>
mun d</w>
c ai</w>
n ộ</w>
kê nh_truyền_hình</w>
nh_t áo</w>
tăng_t ốc</w>
kỳ _hạn</w>
Di_ sản</w>
nhiếp_ ảnh_gia</w>
b ú</w>
họ _
giao_ diện</w>
L os_
9 0
17 .
I -
Thống_ đốc</w>
N ap
m ắt_
d ối</w>
g a
Tuyên_ Quang</w>
g ọn_
k ini</w>
Nguyễn_ Hồng_
c ấy</w>
e u</w>
tràn_ lan</w>
Đạo_ diễn</w>
O ce
18 .
P a</w>
l ụt</w>
o m</w>
Ch ú</w>
tổ n_
K r
R O
N ước_
ké o_theo</w>
tr í</w>
cảnh_ giác</w>
L ad
ph úc_
tập _thể
mặt_tr ận</w>
khuy ết_điểm</w>
quý _h
Quy_ Nhơn</w>
ar y_
chu ồng</w>
ứ _m
th ả
ứ_m ệnh</w>
Sa u_này</w>
se x</w>
Na_ Uy</w>
Ph ân_
r ổ</w>
khô ng_th
V ườn_
z z
chị u_
r ẫy</w>
1- 0</w>
Wor ld</w>
SH B</w>
tr ách</w>
t ả</w>
m ốt</w>
Y e
p an
mô_t ô</w>
2 6-
Tuy ết_
Đ ắc_
im a</w>
ự u_
i_d ào</w>
Chỉ_ số</w>
Ro b
song_ song</w>
L at
Cộng_ sản</w>
th ú
li e</w>
tỉ nh_táo</w>
lượt_ về</w>
Họ c_sinh</w>
t iện</w>
l â
nă m_tháng</w>
H C</w>
ù _l
Rober t_
_t ập</w>
quý_h iếm</w>
khu_tr ục</w>
Gi ờ_
Th ẩm_
en z
os h
b ar
b ồn</w>
Q -
Mos k
h áo_
một_ ít</w>
d ã
Thu ỳ</w>
a _tr
c_n uối</w>
US B</w>
in o
phát_ ngôn_viên</w>
ell i</w>
Giai_ đoạn</w>
A sh
đạ i_dương</w>
tuổ i_trẻ</w>
Su z
t ả
Man_ Utd</w>
n ữ_
_s ách</w>
đường_ kính</w>
do r
C á</w>
bá nh_m
B ích</w>
hợp_ nhất</w>
BID V</w>
on al</w>
h ức</w>
ph ỏng</w>
P -
xi_ măng</w>
T im</w>
chiêu_ mộ</w>
d ạng_
ấu_h ổ</w>
tỉ nh_thành</w>
Đ ộng_
v ắt</w>
N K</w>
gó t</w>
tri_ ân</w>
Tiế p_
b as
tà u_thuyền</w>
Ph il
đ iên_
S en
ec o</w>
ho ả_
30 .
gi ây_phút</w>
V KSND</w>
Tham_ gia</w>
phòng_ khám</w>
New_Yor k_
biên_ phòng</w>
Viet lo
nhà_tr ọ</w>
Ph iên_bản</w>
ưu_ điểm</w>
m ê
tr ực_
bộc_ lộ</w>
23 .
thao_t ác</w>
o i</w>
Vi r
c a_sỹ</w>
Giá m</w>
g g
Nguyễn_Phú_ Trọng</w>
ăn_ mừng</w>
l ê</w>
đụng_ độ</w>
cơ m_
k ẽ</w>
d ồ
ly_ khai</w>
m iện</w>
ti m
Dor t
liên_ doanh</w>
a_ chua</w>
Thuỵ _
Di eg
tổn_ hại</w>
l ẫy</w>
Lê_ Minh_
nh uộm</w>
Chính_ sách</w>
Hạ_ viện</w>
t ẩy</w>
Kh á
xe_ ôm</w>
gi ã</w>
sôi_ nổi</w>
t ú
L ại</w>
T oà
Ngh ị</w>
d ưng</w>
cô n_trùng</w>
ằ n_
không_th ể_nào</w>
chuyển_ động</w>
Hình_ sự</w>
dồ i_dào</w>
tiế c_nuối</w>
Mer kel</w>
TP O</w>
Đ en</w>
t u</w>
cường_ quốc</w>
mạnh_ dạn</w>
Sh ar
Tây_ Hồ</w>
Diệ p_
bản_ địa</w>
D uy
B ao_
nh u
_s úng</w>
ca nh_t
Ch a</w>
nh uyễn</w>
.com .</w>
V ật_
nă m_tuổi</w>
Th i
J C</w>
w a</w>
tr ào_lưu</w>
th iệt_th
L ữ_
Hành_ động</w>
khoa_ học_
chào_ bán</w>
mới_ lạ</w>
Cộng_ đồng</w>
L ệ</w>
Tân_ Bình</w>
b ai</w>
b ãi_
ề u</w>
chiêm_ ngưỡng</w>
Trần_ Quốc_
Cá n_bộ</w>
Â u_
tập_thể _dục</w>
b or
Viet combank</w>
Guardi ola</w>
lo p
bi kini</w>
Phạm_ Hương</w>
xuống_ đường</w>
thất_th oát</w>
quen_ biết</w>
Th ế
hạ nh</w>
đề_ phòng</w>
ởi_ mở</w>
v ét</w>
làm_ giàu</w>
chọn_l ựa</w>
nguy_ kịch</w>
quốc_ hội</w>
H ữu</w>
x ấu_hổ</w>
s ung_
Gi ao</w>
_h ổng</w>
H uyện_
bảo_ lãnh</w>
Bình_ Chánh</w>
cẩ u</w>
hẻ m</w>
lâu_ đời</w>
l ar
kỳ _d
B ru
ch ì</w>
VN- Index</w>
ộ p</w>
iển_tr ai</w>
nhà_ đất</w>
bo m_
trung_th ực</w>
l ăng</w>
Dort mund</w>
Sa in
đầu_ vào</w>
lives how</w>
Khách_ hàng</w>
hộ i_tụ</w>
Th om
You tube</w>
it y_
g ấp_
ch ợt</w>
Ph iên</w>
ol i</w>
Sa ig
họ_ hàng</w>
Thượng_ viện</w>
toà n_thể</w>
giáo_ khoa</w>
ử ng</w>
em a</w>
tàn_ phá</w>
tiêu_h uỷ</w>
Trái_ Đất</w>
sóng_ gió</w>
đồ_ hoạ</w>
on a</w>
e k
mở _màn</w>
P as
n_lược_ gia</w>
iê u_l
Nad al</w>
thể _dục</w>
Số _lượng</w>
Tr âm</w>
Qu ách_
b ile</w>
Kh ôi</w>
19 60</w>
t le</w>
su ýt</w>
ag a</w>
K at
Ch ợ</w>
đ iển_trai</w>
r en</w>
thiệt_th òi</w>
b í_thư</w>
F ul
c ởi_mở</w>
Th ần_
_kh ẩu</w>
tụ _tập</w>
chí nh_trị_
tâm_ linh</w>
tân_ binh</w>
v es</w>
khuyến_ mãi</w>
Micha el_
vùng_ cao</w>
thương_ lái</w>
h ầu</w>
canh_t ác</w>
T I
h iếp_dâm</w>
Mosk va</w>
thế _trận</w>
háo_ hức</w>
ph u_nhân</w>
M ê_
T ạo</w>
thanh_ lịch</w>
hì nh_tượng</w>
môn_ học</w>
2 2-
19 /
n êm</w>
P L</w>
T ương_
giờ_ địa_phương</w>
chuẩn_ mực</w>
bộ_ binh</w>
thai_ nhi</w>
đa u_lòng</w>
V õ</w>
a in</w>
nghiêm_ ngặt</w>
p er</w>
Ho á
S ong_
i_tr ồng</w>
ch ơi_
_ch iến</w>
bánh_m ì</w>
m an_
dung_t ích</w>
ni f
qu ỷ</w>
198 4</w>
Kh a
re m
nhân_ loại</w>
tố p</w>
b úp_bê</w>
3- 4</w>
Ngày_ nay</w>
tẩ y_
tạ p_
A I</w>
Vietlo tt</w>
lú a_
E li
Giờ_ đây</w>
M r
chủ _nhiệm</w>
u_h ụt</w>
29 -
ã nh</w>
Mobi Fone</w>
14 ,
đến_ nỗi</w>
y s</w>
Viet Nam
ho r
cứu_ hoả</w>
kh iếu</w>
L ầu_
E v
th ầu</w>
g an
lão_ hoá</w>
o t</w>
L ăng</w>
tự _sát</w>
thế _lực</w>
ack er</w>
T p.</w>
can xi</w>
ng à
B S
Nguyên_ liệu</w>
_l y</w>
võ _thuật</w>
r ung</w>
đắt_ đỏ</w>
tố_t ụng</w>
Đông_ Bắc</w>
nước_ nhà</w>
v iễn</w>
Tây_ Nam</w>
Bệnh_ nhân</w>
quyề n_s
Uni ver
b ù_
đ ôn_
số_ ít</w>
M ục_
ik a</w>
in d
C àng</w>
Qu an</w>
te en</w>
cầu_ vượt</w>
rag on</w>
ch en</w>
th on</w>
ng ôi_
L av
g ba</w>
vật_ lý</w>
u ế</w>
ộ m</w>
quân_ nhân</w>
S éc</w>
Nh ận_
nh a</w>
kh ống</w>
T Ư</w>
Độ_ ẩm</w>
vội_ vàng</w>
Hu ân_chương</w>
r ạch</w>
Vị _trí</w>
vậ y_mà</w>
sân_ cỏ</w>
Đ H
dòng_ chảy</w>
Qu án</w>
j i</w>
qu ỵ</w>
_ N
đ ệ</w>
nh ức</w>
Kh ương</w>
Mo ham
Đ iệp</w>
V TV
Cristi ano_
kh ỉ</w>
S c
tr ung_t
Giám_ đốc_điều_hành</w>
quy ên_
l am
Á _
o_d áng</w>
B oo
thuyề n_trưởng</w>
C ú</w>
s -
Los_ Angel
anh_ giới</w>
V ốn</w>
tiệ n_lợi</w>
M ối</w>
T iết_
sáng_t ỏ</w>
su s</w>
nhà_t ù</w>
rút_ lui</w>
tử _hình</w>
giả_ mạo</w>
x ô_
Hy und
ệt_ may</w>
hoá _thân</w>
n_tr iệt</w>
trung_ học</w>
xúc_ phạm</w>
ch ọc</w>
nó c</w>
âm_th ầm</w>
si nh_t
tái_ hiện</w>
mi x</w>
dự _luật</w>
l ắc</w>
Bà_Rị a</w>
Rom a</w>
tu i</w>
An t
Th ần</w>
d ội</w>
án_ học</w>
truyề n_tải</w>
NX B</w>
r ể</w>
H ảo</w>
X ử
12 5</w>
điểm_ số</w>
d ẻo</w>
NT K</w>
vương_ miện</w>
h ồng_
Thuỷ_ Tiên</w>
ch ùm</w>
Bắc_ Mỹ</w>
25 /
l ạ
ă n_th
ban_ ngày</w>
diễ u_
Th iết</w>
V iệ
r ách</w>
ch èo</w>
cường_ độ</w>
Sự_ nghiệp</w>
k _S
m ắng</w>
ng_t àu</w>
f e
id a</w>
Đ ời_sống</w>
x ương_
má t_
Ber lin</w>
n uốt</w>
Feder er</w>
l ọ</w>
quyền_s ở_hữu</w>
khá n_đài</w>
I bra
Thông_ báo</w>
lây_ lan</w>
n ối_
3 70</w>
p al</w>
kỹ_thuật_ số</w>
ậm_ chức</w>
bình_ dân</w>
Chiế n_thắng</w>
_t ức</w>
ID S</w>
khuyến_ mại</w>
C M
bảo_hiểm_ y_tế</w>
đ âu_
tuổi_th ọ</w>
thiế u_hụt</w>
õ m</w>
hộ _t
ờ _h
tiể u_thương</w>
nổ _súng</w>
AN H</w>
bấy_ giờ</w>
d en</w>
Te x
đ e</w>
C ường_
hiện_ hữu</w>
Quỳnh_ Anh</w>
tình_ cờ</w>
s ụt</w>
Ro dri
V ẻ</w>
G ri
Nhà_ văn</w>
Tối_ cao</w>
nghiêm_ khắc</w>
vận_ dụng</w>
Đ .
Phóng_ viên</w>
tiến_tr iển</w>
v ăng</w>
ấn_ định</w>
ự c_th
u_th ô</w>
ầm_ lẫn</w>
v á</w>
h a
nh ậm_chức</w>
ng ư</w>
QĐ- TTg</w>
d in
VOV. VN</w>
at es</w>
gi à_
Mar k_
lật_ đổ</w>
C a_
V ua</w>
Sơn_ Trà</w>
bảo_ hành</w>
hoà_ nhập</w>
c ai_
mạch_ máu</w>
C ựu_
nhập_ cảnh</w>
nhà_ giáo</w>
ố i_t
Z ing</w>
iệ m_
197 9</w>
H è</w>
ngoại_ ô</w>
đa_ dạng_
_t iên</w>
ũ _l
ard s</w>
ash i
đườ ng_thuỷ</w>
đ inh</w>
cá _m
Hương_ Giang</w>
qu ỳ</w>
B ăng_
T ên_
Thương_ binh</w>
id er</w>
Gi áp</w>
s il</w>
vậ t_t
Jam es
A ir</w>
Minh_ Tuấn</w>
y u
b én</w>
sáng_ chế</w>
c ao
Đỗ _M
r es</w>
ngôi_ vị</w>
p en
định_ vị</w>
1. 200</w>
i_ Won</w>
Vừa_ qua</w>
3 5
t ồn_
E le
trung_ gian</w>
l ụa</w>
th ơ
n ợ_
Tình_ yêu</w>
t ao</w>
b ế</w>
P R</w>
X ét</w>
c c
lỗ _hổng</w>
thân_ mật</w>
Cristiano_ Ronaldo</w>
ưa _thích</w>
tế -
lặ ng_lẽ</w>
Hôm_ qua</w>
Ab d
D ung_
g ánh_
C ửa</w>
đương_ kim</w>
B à
sách_ giáo_khoa</w>
Kh ám_
s ta
ch ưng</w>
SI M</w>
1/201 8</w>
VietNam Net</w>
ớ t_
Le ic
hành_ hung</w>
en i
e y
sốt_ xuất_huyết</w>
núi_ lửa</w>
tù _nhân</w>
cổ _tức</w>
x oài</w>
hấp_th ụ</w>
Trường_ Sơn</w>
lộng_ lẫy</w>
16 /
o ng
sư _tử</w>
tương_ đồng</w>
nữ _tính</w>
vật_t ư</w>
x _
Tư_ vấn</w>
r ăn_
n_tr ú
Cro atia</w>
b ồ</w>
en t_
dầ u_thô</w>
Con_ số</w>
n and
ng ạc</w>
chu_ kỳ</w>
í_ như</w>
phạ t_
Đ o
m ũ_
s ứ_mệnh</w>
d ao_
Ever ton</w>
chuyên_ dụng</w>
Công_ văn</w>
Tuần_ lễ</w>
b ật_
V CK</w>
quyên_ góp</w>
_t ắc</w>
Nhã_ Phương</w>
j i
hoả_ hoạn</w>
Qu á</w>
ẻ _t
b ới</w>
đột_ nhập</w>
b ạ</w>
U ống</w>
tr ễ</w>
H ạnh_
khung_ cảnh</w>
Tr iệu</w>
khai_ báo</w>
ph ao</w>
đồ_ đạc</w>
Hiệp_ ước</w>
p -
m ét_
No v
chủ_ nghĩa_
Y ê
hiệ n_trạng</w>
ng_t ên</w>
k ĩ
ak u</w>
S D</w>
_d ành</w>
kích_ cỡ</w>
th ô</w>
Thanh_ Bình</w>
t át</w>
Quang_ Trung</w>
Tr í_
vùng_ xa</w>
Kết_ luận</w>
B A</w>
Jose_ Mourinho</w>
_th uỷ</w>
ố i_th
A IDS</w>
th an_
r ang</w>
n_trú c_sư</w>
hình_ dáng</w>
e i
tạ o_dáng</w>
bạo_ hành</w>
x é</w>
nhị n</w>
bình_ ổn</w>
Ju li
V ượng</w>
_th u</w>
Th ánh</w>
tr i_thức</w>
điệ p_
U E
Đ ôn</w>
15 ,
thể _chất</w>
EU RO</w>
nuô i_trồng</w>
ượ ng_th
Phần_ Lan</w>
bỏ_ hoang</w>
F i</w>
d ỗ</w>
tà ng_
O li
công_ dụng</w>
v ia</w>
Nam_ Mỹ</w>
ag en</w>
uỷ_ viên</w>
tràn_ ngập</w>
gi ận_
bao_ lâu</w>
y m
chứng_t ừ</w>
Nguyễn_ Tấn_
14 /
kho ai_tây</w>
vừa_ mới</w>
Bu ôn_
phấn_ khởi</w>
thuyền_ viên</w>
O ai</w>
quá n_triệt</w>
cấp_ bách</w>
G V</w>
n y</w>
Đắk_ Nông</w>
ngo ạn_
tàng_ hình</w>
196 8</w>
r ốt</w>
F ar
quán_ quân</w>
27 /
H iền_
F LC</w>
L ực</w>
Hợp_ đồng</w>
Nig eria</w>
nh ầm_lẫn</w>
Pet er
N AS
đề_ cao</w>
con_ giáp</w>
n_ kinh</w>
Đ ă
Du_ khách</w>
chiế u_
c ởi</w>
9 5%</w>
h am_
Su per
e n_t
N a</w>
Z ing
ủ a</w>
D jo
công_ đoạn</w>
n_th ờ</w>
Th ờ
ch ân_t
nhỏ_ bé</w>
K m</w>
giam_ giữ</w>
I dol</w>
nhiễ u</w>
đ iêu_
th ư
es -
S lo
H ậ
X e_
bù_ đắp</w>
l ệ_
D iệu</w>
Ne x
cục_ bộ</w>
do_ vậy</w>
th iên</w>
sh i
L ar
cự u_
tổng_ giám_đốc</w>
Anh_ hùng</w>
x ài</w>
qu ái_
x ì</w>
1, 3</w>
lôi_ kéo</w>
phản_ công</w>
197 2</w>
Tr úc_
T on
ngh ịch</w>
4, 5</w>
ngoạn_ mục</w>
Ngọc_ Anh</w>
s ào</w>
ng_th ần</w>
mã i_
6 0.000</w>
198 3</w>
kháng_ cáo</w>
đ ấm</w>
n ể</w>
ng_th ân</w>
quy_ chuẩn</w>
_l uỵ</w>
cô _lập</w>
nhà_ hát</w>
C IA</w>
đ ụng</w>
y_th uốc</w>
M ay_mắn</w>
is _S
thương_mại_ điện_tử</w>
đánh_ đập</w>
Tổng_th ư_ký</w>
lo t
diện_ mạo</w>
Q U
t ứ</w>
điệ n_t
C ủ_
lưu_tr ú</w>
đó ng_tàu</w>
tră n_trở</w>
ngh ẽn</w>
Nguyễn_ Hoàng_
_t ộc</w>
u d</w>
chân_ dung</w>
cứng_ rắn</w>
3 7
ng ửa</w>
ww w
ực_th ăng</w>
ả_th ân</w>
thương_ vong</w>
đường_ lối</w>
qu i_
qu ỹ_
m y</w>
am s</w>
phát_t án</w>
dân_t ệ</w>
Huyện_ uỷ</w>
Bộ_ đội</w>
gió_ giật</w>
mất_ mát</w>
uỷ_ ban</w>
danh_ hài</w>
khuy ết</w>
K az
tr ố
bệnh_ nhi</w>
ươ ng_tr
D N
A ri
tâ m_t
B ởi_vì</w>
ch ót</w>
s àng</w>
nhà_ quản_lý</w>
n ử
Phú _L
_s ấu</w>
tiếp_ viên</w>
qu ất</w>
Kh uy
18 /
_si nh_thái</w>
giải_ đáp</w>
Long_ Thành</w>
ng ài</w>
d ĩ</w>
có_ điều</w>
n ang</w>
th ạc_sĩ</w>
ng_th ang</w>
an t
T O</w>
chính_trị_ gia</w>
A C
H ường</w>
Tr ải</w>
s ọ</w>
đàn_ em</w>
L e_
hoả _lực</w>
xuất_ nhập_khẩu</w>
K ỷ_
po t</w>
Thực_ ra</w>
Ô ng_
om etr
es h</w>
đ ò</w>
_ E
For m
Đ ế</w>
Ch o_
th iêu</w>
NT M</w>
n ạo_
chị_ gái</w>
tinh_ vi</w>
Djo kovic</w>
2 1.
Thu ỵ</w>
l ũ_l
ch_th u</w>
oun ce</w>
toạ_ đàm</w>
ở_d ữ_liệu</w>
l ánh</w>
l ồng_
thu ần</w>
thích_ ứng</w>
duyên_ dáng</w>
HC N</w>
phò ng_tr
r anh_giới</w>
đắc_ cử</w>
Vũ_ Văn_
tỉ a</w>
Hoà ng_tử</w>
U 20</w>
Kh í
t ung_
25 .
s ành_
o C</w>
bảo_hiểm_ xã_hội</w>
ống_tr ị</w>
ĐT QG</w>
k a
cấp_ nước</w>
ph à</w>
quy_t ụ</w>
ường_tr ú</w>
trình_ làng</w>
thảm_ đỏ</w>
đôn_ đốc</w>
H ướng</w>
th ứ_
Viet in
t ụt</w>
Thu_ Thảo</w>
biểu_ dương</w>
Đ ọc</w>
B XH</w>
M ạc_
ưu_ ái</w>
Nh ớ</w>
chuyển_ hướng</w>
T ak
hạ ch</w>
ạ_l ạc</w>
trung_ cấp</w>
In ter</w>
g or
F err
đường_ bay</w>
sinh_ động</w>
Khoa_ học_
l ướt</w>
chung_ cuộc</w>
20 25</w>
Bạch_ Mai</w>
4 50</w>
kinh_ điển</w>
tỉ_ m
Gol d
sức_ sống</w>
Bre xit</w>
th ống_trị</w>
Nhân_ viên</w>
Tuyên_ giáo</w>
e v
Đ iển_hình</w>
Van_ Gaal</w>
thương_ binh</w>
x en</w>
phân_ chia</w>
cự _ly</w>
S á
TN GT</w>
b il
24 .
Jen nif
đa_ năng</w>
tiện_ nghi</w>
bệnh_ lý</w>
l ách</w>
ý_ muốn</w>
F- 35</w>
ro v</w>
bất_ lực</w>
g h</w>
u l</w>
F lori
Uỷ_ban_ nhân_dân</w>
cho áng_
vô_t ư</w>
lệ_ phí</w>
nh_tr ưởng</w>
H or
Mo del</w>
AS I
hà n</w>
tr a_
m ỳ</w>
im b
hồ n_
a kh
Đ ậu</w>
k o_
V iễn_thông</w>
chào_ đời</w>
ốc_ liệt</w>
v iền</w>
n ữ_hoàng</w>
ồ_ ạt</w>
Tu ân</w>
K or
mưu_ sinh</w>
nghỉ_ việc</w>
ph yl
hoạt_ hình</w>
C át</w>
Tiế p_th
thầ n_th
ic k_
thăng_ hoa</w>
xâm_ lược</w>
H ào</w>
a t_
o c
P G</w>
201 1-
cảnh_ cáo</w>
sản_ phụ</w>
mo del</w>
Tình_ hình</w>
Đôi_ khi</w>
xem_ lại</w>
ul a</w>
T ất_
es el</w>
st y
M ay
Ste ph
gus on</w>
nội_th ành</w>
thịnh_ vượng</w>
I D</w>
vậ n_tốc</w>
dự ng_
ki nh_t
cô ng_trường</w>
b ôi</w>
Hà nh_trình</w>
Nguyễn_ Trọng_
thực_ khách</w>
răn_ đe</w>
li s</w>
hội_ chợ</w>
ượng_ đài</w>
Har ry_
N ay</w>
Lu k
m ờ
kích_ động</w>
tic s</w>
nh ã</w>
Ban_ Bí_thư</w>
kh ốc_liệt</w>
Blo om
v é
m g</w>
c tu
Giả m</w>
_d iệt</w>
d an
Ag ri
tị ch_thu</w>
đ ào_
lây_ nhiễm</w>
M ông_
một_ khi</w>
ẫu_ nhiên</w>
W ol
Ge ometr
Nông_ dân</w>
3- 1</w>
14 0</w>
đánh_ đầu</w>
Fer guson</w>
Qu an
The_ F
is h
Vũ_ Thị_
c ột_
ng_t ộc</w>
tuổi_th ơ</w>
Tuy _
FB I</w>
V ill
cả m_t
17 /
Người_ phát_ngôn</w>
M id
Đội_ hình</w>
Hội_ chợ</w>
T ố
Me g
Ba_ Vì</w>
l l</w>
c_t ội</w>
S om
H òn_
mô -
hiền_ lành</w>
ị _trường</w>
cảm_ động</w>
cá n_
mãi_ mãi</w>
Geometr idae</w>
M es
lo r</w>
M an</w>
D om
đ úp</w>
e p
ước_t iên</w>
Kh ối</w>
b re
tàu_ khu_trục</w>
b ạt</w>
Ng ô</w>
ou t</w>
Bùi_ Thị_
con_ nhỏ</w>
t ờ
bao_ vây</w>
đánh_ cắp</w>
lý _luận</w>
Thanh_ Hằng</w>
Â n</w>
lữ_ hành</w>
ỷ _diệt</w>
cá _thể</w>
tả i_trọng</w>
hậ u_trường</w>
O DA</w>
cá_tr a</w>
Tr ẻ_
nghi_ lễ</w>
mở_ đầu</w>
ng ẫu_nhiên</w>
v ac
ch ẳng_
ag es</w>
Ch iểu</w>
làm_ khách</w>
từ _từ</w>
D ân_t
h ào</w>
Sức_ khoẻ</w>
29 /
Cộng_ hoà_
N E
gi ang_
man n</w>
chấn_ động</w>
thu ế_
H ang_
ế_th ị_trường</w>
qu ấy_
h ít</w>
C ô_
tổ _
ng oài_ra</w>
kinh_ ngạc</w>
dàn_ dựng</w>
Z u
U 21</w>
Trần_ Ngọc_
c ay_
sản_ sinh</w>
it o</w>
đ ói_
Th ầ
dễ _chịu</w>
Har i_Won</w>
o vic</w>
tuỳ _thuộc</w>
3 60</w>
ch _trình</w>
danh_ giá</w>
Quan_ hệ</w>
r ầm_
máy_ chủ</w>
ê n_th
se y</w>
khẩ n</w>
G ặp</w>
Ng ay_lập_tức</w>
Th ủ
d ân_th
HC Đ</w>
cầ n_
h iếp</w>
R E
Dam as
ph àn_
phàn_ nàn</w>
t ườ
Bộ_ Tư_lệnh</w>
Việt_ kiều</w>
Tham_ dự</w>
vững_ mạnh</w>
gi ặc</w>
Khả_ năng</w>
th ơ_
t ti</w>
c úi</w>
đ ính</w>
i o</w>
www .
x ịt</w>
Không_ gian</w>
r ớt</w>
ấp_ xỉ</w>
phế _liệu</w>
Thiện_ Nhân</w>
tỷ _trọng</w>
hệ _sinh_thái</w>
ng_th ú</w>
tình_th ế</w>
W eb
w _
Hy_ vọng</w>
C la
hu ỷ_diệt</w>
log o</w>
Ứng_ dụng</w>
S ol
Chất_ lượng</w>
N iềm</w>
ng_t úng</w>
hải_ lý</w>
h ông</w>
gi a
hoài_ nghi</w>
trái_ đất</w>
E s
đ ư
bó p</w>
tiếp_th ị</w>
Điện_ Biên_
hộp_ số</w>
tiêu_ chảy</w>
i_th uốc</w>
hứ ng_thú</w>
ch ấn</w>
ng_tr ưng</w>
gi ữ
_ch iếu</w>
T ứ_
chạ m_tr
phụ_ cấp</w>
198 1</w>
chế_t ài</w>
b ọt</w>
biết_ bao</w>
m o</w>
k iện_t
ch ez</w>
Hữu_ Thắng</w>
tập_ kết</w>
ông_ xã</w>
cứ _
I d
i z
ít_ nhiều</w>
Ch ống</w>
Ch ắc_chắn</w>
buộ c_tội</w>
Sân_ bay</w>
x ấp_xỉ</w>
Chi_ nhánh</w>
S ông_
enc ia</w>
b s</w>
c el
S C</w>
kh ốn_
căn_ bản</w>
Med ia</w>
in e
Trung_ Hoa</w>
ẫn_ nộ</w>
g ra
chuyên_tr ách</w>
tr ầm</w>
AT TP</w>
ắc_ xin</w>
t ượ
X á</w>
binh_ lính</w>
v iếng</w>
1, 6</w>
N ỗi</w>
n áo_
o xy_
đầu_ bếp</w>
mật_ khẩu</w>
í_th ức</w>
Mo tor
ch ậ
lu ận_
Tr àng_
Quy _chế</w>
Th à
thích_ nghi</w>
ụ t_
Nguyễn_ Mạnh_
chỉ _dẫn</w>
ất_th ân</w>
T ìm</w>
2. 500</w>
L ợi_
Ph ụng</w>
ấu_ giá</w>
s in</w>
phong_t ục</w>
Đường_ sắt</w>
h ệt</w>
Nh uận</w>
al l</w>
et sk</w>
ót_ xa</w>
Kh ai</w>
Lầu_ Năm_
s ừng</w>
l ạ_l
vĩnh_ viễn</w>
R -
NGUY Ễ
T ô</w>
t iên</w>
do gan</w>
m b
Th ắm</w>
b ẩm_
ph ủ_
R S</w>
0 00</w>
V ô_
d ạ</w>
P la
d ge</w>
_s ạn</w>
Mô _hình</w>
GP MB</w>
Kh ách
D J</w>
Câu_ lạc_bộ</w>
ể_ bơi</w>
28 .
độ c_th
Th iết_bị</w>
cầu_th ang</w>
m anh_
W o
trung_ học_
b ọ
chủ_ đạo</w>
Bắt_ đầu</w>
16 ,
Tho ả_thuận</w>
B inh_
anh_ nh
li ke</w>
Wal es</w>
k ara</w>
cơ_ giới</w>
L ợ
c ti
Khách _sạn</w>
M àu</w>
fi eld</w>
Đại_t ướng</w>
_d ùng</w>
VH -
sắc_ màu</w>
thương_ lượng</w>
chiế n_lược_gia</w>
xu s</w>
Đàn_ ông</w>
Ch ọn</w>
Điều_tr a</w>
r anh</w>
Tác_ phẩm</w>
ng_th ủ</w>
Ch an
T al
tr ào</w>
Scot land</w>
C ru
il er</w>
nh ật_
Damas cus</w>
ă n_t
nguy_h ại</w>
u ê</w>
nh_tr ang</w>
tí ch_t
th ường_trú</w>
í_ nghiệm</w>
cách_ biệt</w>
Trung_ đoàn</w>
chỉ _thị</w>
n òng</w>
f ile</w>
tha_th ứ</w>
hệ_ số</w>
kh ao</w>
quỹ_ đạo</w>
s ấy</w>
3 9
as t</w>
quyết_t oán</w>
ng ả</w>
ả_th ù</w>
b ro
3 1-
đổ_ vỡ</w>
H ạm_
23 /
qu ang_
Tr úc</w>
quy_ luật</w>
bẩm_ sinh</w>
a p</w>
Sir _
có _thai</w>
l ôi</w>
gh en_t
thu ận</w>
cá ch
thực_ ra</w>
b a_mẹ</w>
Hàng_ không</w>
e u
b ò
C a</w>
tù_ giam</w>
Mục_ đích</w>
đ ực</w>
No el</w>
H iểu_
J av
1/ 2</w>
In s
Liên_ hoan</w>
nh_t ự</w>
giai_ điệu</w>
ch ợ_
c úc</w>
dân_ làng</w>
Los_Angel es</w>
V T</w>
3- 0</w>
is e</w>
công_ sở</w>
tr ắng_
C ảng_
kiên_ nhẫn</w>
số_ một</w>
Trung_t ướng</w>
mũ_ bảo_hiểm</w>
Hạm_ đội</w>
vương_ quốc</w>
er e</w>
R us
B ố_mẹ</w>
lòng_ đường</w>
nh anh_nh
Tên_ lửa</w>
hành_ lý</w>
S av
Độ i_tuyển</w>
s ắm</w>
nội_ y</w>
đột_ quỵ</w>
pu r</w>
thẩm_ phán</w>
ng ất_
ớ _tr
X I</w>
thay_ mặt</w>
t ây_
y_th áng</w>
N _
T O
ng ại_
ng ục</w>
Manch ester</w>
tượ ng_trưng</w>
S JC</w>
x u</w>
cổ _tích</w>
2 6.
B on
số _hiệu</w>
nạo_ vét</w>
kết_ án</w>
at e
mềm_ mại</w>
chi_ phối</w>
197 6</w>
Lê_ Hồng_
Man_ United</w>
Yo ung</w>
l ắc_
N âng</w>
Th iếu</w>
S nap
C ung</w>
x ảo</w>
è n_
Thế_ là</w>
3 /201
Th ật_
D ần</w>
tr ả_thù</w>
ak e</w>
ch iều_
Au di</w>
d ấy</w>
M ã_
nghiệ m_thu</w>
Trung_t á</w>
cá m_
ng_th ương</w>
Cử a_
bao_ gi
ị_ em</w>
tổ _tiên</w>
E a_
Vậ y_mà</w>
j a</w>
1/ 8</w>
l ấy_
lũ_l ụt</w>
Tân_ Phú</w>
tín_ ngưỡng</w>
ơn_ bao_gi
ơn_bao_gi ờ_h
ơn_bao_giờ_h ết</w>
Ste ve_
L ộ</w>
C ou
phầ n_thưởng</w>
Tì m_
ghi_ âm</w>
bỏ _rơi</w>
dân_th ường</w>
t ệ_
thiếu_ niên</w>
G hi_
Cận_ cảnh</w>
qu ế</w>
cá _sấu</w>
Val encia</w>
chuyên_ khoa</w>
E ng
la ng_thang</w>
M ã
Quả n_trị</w>
r ung_
C ực</w>
Bảo_ an</w>
cây_ cảnh</w>
CA TP</w>
dòng_ họ</w>
tất_ yếu</w>
quanh_ năm</w>
í_ nghiệp</w>
tạo_ dựng</w>
TD TT</w>
dấu_ vết</w>
Get ty</w>
30 0
hệ _luỵ</w>
Văn_ bản</w>
s eri
Cảm_ ơn</w>
hàng_ hiệu</w>
bàn_ phím</w>
ộn_ nhịp</w>
mặ n_
tưởng_ chừng</w>
cốt_ lõi</w>
tậ p_t
U ru
W i-
1, 8</w>
B M</w>
ngu y</w>
r ập</w>
giết_ mổ</w>
S ec
nhà_ riêng</w>
S ắp</w>
nhỏ _nh
Bình_ Tân</w>
S tr
ri s</w>
_kh áng</w>
Th ất_
Đại_ Tây_
Đối_t ác</w>
đồ _dùng</w>
27 .
Khá n_giả</w>
cơ_ bắp</w>
n_tr anh_
nh ỉ</w>
ế_ quốc</w>
ng_l iêng</w>
en a_
ar _
k eo</w>
công_ phu</w>
ASI AD</w>
hữ u_hiệu</w>
b ăm</w>
thành_ đạt</w>
chuyên_ viên</w>
phụ _t
ừ u</w>
trước_ kia</w>
T áo_
h ấp</w>
Lý_ Sơn</w>
G or
hành_ xử</w>
25 .000</w>
ô_ phỏng</w>
p _tr
hình_ dung</w>
ph ô
Ph ản_
Đ ệ</w>
v s</w>
M ua</w>
C ôn_
l anh</w>
oxy_ hoá</w>
_c ôi</w>
s ẹo</w>
_ch ắn</w>
t ỏ
l ễ_
mạ nh_tay</w>
l ấp_
hứng_ chịu</w>
B erry</w>
máy_t ính_
Th an_
a_h ấu</w>
C el
D uter
N ĐT</w>
Hoàng_ Thị_
Chú a</w>
phi_ hành_
đẩy_ lùi</w>
i_tr ú</w>
châu_ lục</w>
thiê ng_liêng</w>
nhất_th iết</w>
đờ i_thường</w>
kho ả_thân</w>
c ư_
c ưa</w>
lị ch_trình</w>
tâm_ bão</w>
d ệt</w>
B at
gây_ rối</w>
Ư Ơ
ấp_ nhiệt_đới</w>
le g
I CT
x ót</w>
vi ew</w>
r ưỡi</w>
H U
Vietnam net</w>
s y
F ri
Đa_ số</w>
g u</w>
ph ẫn_nộ</w>
To p_
Lê_ Thanh_
thí _nghiệm</w>
Điện_Biên_ Phủ</w>
on ia</w>
s ương</w>
T ali
bo y</w>
gián_đ oạn</w>
v iệt</w>
ưu_ chính</w>
tiế p_t
G T
13 /
n ảy</w>
k iêng</w>
hậ u_thuẫn</w>
S ina</w>
d ệt_may</w>
chạy_ đua</w>
t en</w>
thiế u_th
th am</w>
Duter te</w>
tr ùng_
No b
197 3</w>
Cách_ mạng</w>
i_d iễn</w>
X IV</w>
m as
ke ting</w>
9 9
_t âm</w>
k ỵ</w>
17 ,
Hàng_ loạt</w>
y_th ì</w>
tr ăng</w>
r êu</w>
g ân</w>
Vũ_ Đức_
v ắc_xin</w>
Hậ u_quả</w>
sho p</w>
năng_ khiếu</w>
No ctu
sành_ điệu</w>
Nam -
khởi_ điểm</w>
Te h
cải_ lương</w>
áo_ khoác</w>
khát_ vọng</w>
Đề_ nghị</w>
vé _số</w>
thuỷ _tinh</w>
s ưa</w>
r en
d ứa</w>
ch_l ệ</w>
ng ạt</w>
cơ_s ở_dữ_liệu</w>
ra tes</w>
K rem
hộ _chiếu</w>
th ung_lũng</w>
cơ n_s
D V
T ar
c_ mạc</w>
bị t</w>
Đông_ Anh</w>
b ố_
UE FA</w>
Đ àm</w>
f or</w>
h ơn_bao_giờ_hết</w>
thông_ cảm</w>
nhận_ dạng</w>
Th iêm</w>
197 8</w>
sữ a_chua</w>
đồng_ phạm</w>
mã _
ấu_h iểu</w>
t ướng_
gi ục</w>
Lầu_Năm_ Góc</w>
T ự_
Vin amil
ân_tr í</w>
ra _tay</w>
r ú
gi o_
bá n_đ
g àng</w>
cơn_s ốt</w>
Đại_Tây_ Dương</w>
xác_ lập</w>
r a_s
biết_ ơn</w>
phần_ cứng</w>
nghị_ định</w>
l én</w>
trình_ duyệt</w>
D em
ngo ặt</w>
bàn_ bạc</w>
hang_ động</w>
khí ch_lệ</w>
m ay_
h an
L á</w>
ĐT VN</w>
để _dành</w>
ak i</w>
12 %</w>
cơ_ khí</w>
th âm</w>
co n_tin</w>
m ù
Ch ợ_
Giải_ pháp</w>
_M ar
IM F</w>
Tuy ền</w>
l ũ_
siêu_ âm</w>
đ ao</w>
1/201 7</w>
v iện_
m iệt_
đặ c_tính</w>
T ức</w>
bất_ kể</w>
hộ _khẩu</w>
d ro
T ôn</w>
nâ ng_
M àn</w>
c ào</w>
i_th oại</w>
l iê
ch ắc_
Thanh_ Trì</w>
bán_ dâm</w>
gia_ chủ</w>
Window s_
tỉ_m ỉ</w>
ắt_ khe</w>
r án</w>
mồ _côi</w>
C úp</w>
Gia_ Lâm</w>
hộ_t ống</w>
Ibra him
Noctu idae</w>
H O</w>
gọn_ gàng</w>
D re
Ser bia</w>
kho ái</w>
tái_ xuất</w>
ng ất</w>
thiên_ đường</w>
Per u</w>
sa_ mạc</w>
S UV</w>
tr út</w>
15 0.000</w>
ghi_ chép</w>
12 /2017</w>
Oce an
là n_đ
bao_ bì</w>
kh ắt_khe</w>
ch ửi_
Hà_ Hồ</w>
đảo_ chính</w>
Jon es</w>
C le
lập _trường</w>
ung_ linh</w>
ngang_ nhiên</w>
a c</w>
Năm_ ngoái</w>
Năng_ lượng</w>
tế- xã</w>
h ỏ
bà ng_hoàng</w>
nh ộn_nhịp</w>
t ất</w>
L ĐB
w ay</w>
độc_th ân</w>
r ực</w>
UA E</w>
ái_t ử</w>
n ước_t
C r
T am</w>
phóng_ xạ</w>
Nguyễn_Thị_Kim_ Ngân</w>
ester ol</w>
Nh iệm_
D iễn</w>
thiê n_thần</w>
G à</w>
cầu_ kỳ</w>
197 4</w>
CH D
trì nh_tự</w>
w on</w>
ế_th u_
Hội_đồng_ quản_trị</w>
kỳ_d iệu</w>
th ang_
Ge a</w>
T ùng_
ế_thu_ nhập</w>
12 /2016</w>
gi eo</w>
chủ _nhật</w>
str ess</w>
gu ay</w>
6 /201
Nh ìn_
đông_ đúc</w>
mất_ ngủ</w>
v àn</w>
vùng_ sâu</w>
Trần_ Thanh_
Sa_ Pa</w>
1 15</w>
tây_ nam</w>
2. 0</w>
H z</w>
m ou
hồn_ nhiên</w>
NN -
g ội</w>
Tổng_ Thư_ký</w>
U S</w>
Cho_ nên</w>
Mi G-
T ín_
tự_ phát</w>
Đồ _
Ph ường</w>
ám_ sát</w>
t ang</w>
phân_ luồng</w>
thu ở</w>
b ao_t
thu ần_
da_ cam</w>
V KS</w>
lú ng_túng</w>
hội_ chứng</w>
Sơn_ Tây</w>
õ ng</w>
_d ân_
đăng_ cai</w>
D iễm</w>
ố m_
P P
R ồng</w>
Phạm_ Công_
th ấu</w>
vil le</w>
es s_
las er</w>
X e
John son</w>
a x</w>
S tu
C ánh</w>
To m_
Tuổ i_trẻ</w>
Uru guay</w>
F e
Uỷ_ban_ Nhân_dân</w>
S ư_đoàn</w>
ra_s ức</w>
ì_ hoãn</w>
T an
TM CP</w>
Gi ới_
Tu ỳ</w>
Phạm_ Ngọc_
L ang</w>
Phan_ Thị_
si e</w>
khiêu_ khích</w>
li e_
n ến</w>
chuyên_ án</w>
m ô_phỏng</w>
m s</w>
bộ _nhớ</w>
Flori da</w>
nh phu
v áng</w>
v ắ
5, 5</w>
C ả
T er
B ắt</w>
Gò _V
lâm_ nghiệp</w>
Bloom berg</w>
Nhã_ Kỳ</w>
L ớn</w>
Trước_ mắt</w>
_ch ân</w>
đ ứ
ae da</w>
ad i</w>
l ao_
tiền_ nhiệm</w>
S ở_hữu</w>
quần_ vợt</w>
hỗn_ loạn</w>
Mo on</w>
kị ch
L ân</w>
Gò_V ấp</w>
in -
Xuất_ hiện</w>
cuộc_ chơi</w>
Minh_ Hằng</w>
L ĩnh</w>
căn_ cứ_
g i</w>
nguyên_t ử</w>
hoảng_ loạn</w>
U l
N ữ
2/ 3</w>
ra s
l ùm</w>
Thực_ phẩm</w>
Đ ưa</w>
tr ữ
huỷ_ hoại</w>
bảo _trợ</w>
d ưa_
_th i</w>
G ươm</w>
_M inh_
p_tr ai</w>
v ùi</w>
tr í_thức</w>
Do ãn_
N àng</w>
h an</w>
x í</w>
Wh it
thời_ lượng</w>
t ê
et t</w>
V GP</w>
J -
sưu_t ầm</w>
i c_
Ibrahim ovic</w>
an_ ủi</w>
Su n</w>
cẩ n_trọng</w>
Dieg o_
Bất_ động_sản</w>
An kara</w>
truyền_ cảm</w>
Mỹ -
S S</w>
tr ù
nhiếp_ ảnh</w>
ê u_
tr ì_hoãn</w>
rú t_tiền</w>
Q aeda</w>
S ức</w>
bao_ phủ</w>
cấm_ vận</w>
đắt_ giá</w>
b ạc_
đầu_t ay</w>
thông_th oáng</w>
Hùng_ Vương</w>
Tali ban</w>
củ a_
Ph ù
chính_ quy</w>
san_ hô</w>
giá n_tiếp</w>
bộ_ đồ</w>
ký _t
ngo ại_trừ</w>
Mar ia</w>
tội_ ác</w>
C uốn</w>
m_tr ễ</w>
Kỳ_ Anh</w>
ch ủng_
Tr ung_thu</w>
Du bai</w>
m ai_
H ỏi</w>
thiếu_th ốn</w>
N m</w>
S and
quầ n_thể</w>
Kh ối_
sơ_ mi</w>
t i_
T E</w>
í _tuệ</w>
Suz uk
địa_ chất</w>
phản_b ội</w>
dư_ nợ</w>
s ch
gi ường_
r ỗi</w>
học_ đường</w>
l ột</w>
am i</w>
B ữa</w>
Tuấn_ Hưng</w>
trí _nhớ</w>
Trà_ My</w>
H án_
đàn_ anh</w>
á y_
Quy ến</w>
Phòng_ chống</w>
D ẫu</w>
Kiế n_trúc</w>
A gu
b ể_bơi</w>
ẩ y_
t ĩnh_
phát_ điện</w>
st er</w>
bán_ chạy</w>
nguyên_ vẹn</w>
Từ _
ự a_
biến_ dạng</w>
Bu ff
tiến_ công</w>
bỗng_ dưng</w>
th ù_
Inf on
G ương_mặt</w>
bu ồng</w>
hư_h ại</w>
Tex as</w>
u t</w>
Thu ỷ
v óc</w>
B àng</w>
điệp_ viên</w>
c_tr ặc</w>
29 .
Đ .</w>
ang -
Pe tr
Dân_t ộc</w>
àng_ buộc</w>
1. 4
ng ứa</w>
v an
th ă
8 0.000</w>
ng_th ích</w>
to s</w>
Th áng_
Serge i_
ck er
l ung_linh</w>
Atleti co_
K al
ng ậm_
nh ốt</w>
rầm_ rộ</w>
m ass
ro up</w>
Chu ẩn_
Thị _tr
thu ế
v ỏ
bầu_ chọn</w>
đông_ lạnh</w>
khảo_ cổ</w>
i_th ăm</w>
đơn_ phương</w>
d en
Con te</w>
Ph óng</w>
í_ hoá_học</w>
C lo
Har v
Th iê
võ _sĩ</w>
hì nh_thể</w>
s burg</w>
cử _nhân</w>
độ_ ẩm</w>
chậ m_trễ</w>
L is
đó n_tiếp</w>
Đ ấy</w>
g ầy</w>
áp_th ấp_nhiệt_đới</w>
Ch ợ
che_ giấu</w>
D E
_s oạn</w>
Lưu_ ý</w>
Củ_ Chi</w>
l ừa_
T inh_
X ương</w>
Bất_ chấp</w>
h ả</w>
truy_t ìm</w>
i_t ác</w>
dưỡng_ chất</w>
t ế</w>
C re
x ót_xa</w>
đa_ cấp</w>
t ứ
d is
SG K</w>
r àng_buộc</w>
k ỉ_
khí _t
Nguyễn_ Thế_
ặt_ hái</w>
Lý_ Nhã_Kỳ</w>
thân_ nhân</w>
chiề u_hướng</w>
ức_ chế</w>
H H
đậm_ đà</w>
nguyện_ viên</w>
P it
Ant oni
b ẻ</w>
B ab
M A</w>
vi n_
xa_ xôi</w>
Quan _trọng</w>
chạm_tr án</w>
d ay</w>
ic e_
d u_thuyền</w>
Khuy ến_
Vương_ Đình_
chol esterol</w>
thua_ kém</w>
L um
cá_m ập</w>
c ừu</w>
S H</w>
tay_ chân</w>
18 ,
C li
Get ty_
tr ọng</w>
trụ c_trặc</w>
gu e</w>
C ụm</w>
Vn Express</w>
cử_ chỉ</w>
b en</w>
Thu_ Trang</w>
cá _h
vi_ xử_lý</w>
trái_ ngược</w>
m y
ph a_
s ắn</w>
B ir
é o_
mặn_ mà</w>
Vinamil k</w>
c ờ_
Quan_ điểm</w>
A h</w>
mong_ chờ</w>
mở_ đường</w>
chiếm_ đóng</w>
Thượng_t á</w>
ens e</w>
X ác_
ero in</w>
1, 4</w>
v ấn_
g ặt_hái</w>
vũ_kh í_hoá_học</w>
Er dogan</w>
L A</w>
hor m
bất_ kì</w>
tệ_ nạn</w>
V I</w>
W B</w>
Hoàng_ Yến</w>
lâm_ sàng</w>
lạc_ hậu</w>
r i_
M ây</w>
c anh_
ao_tr ùm</w>
H ành</w>
đầu_ cơ</w>
ò m</w>
Z ika</w>
N ati
g ật</w>
Huyền_ My</w>
et te</w>
ban_ ngành</w>
bánh_ xe</w>
an p
ki p</w>
hợ p_tác_xã</w>
to ạ_lạc</w>
Th ích_
t ắc_
Th ư_
khu ôn</w>
M ặt</w>
Ho ả</w>
thực_ đơn</w>
T ỷ_
ở _r
c ày</w>
lời_ lẽ</w>
hài_ cốt</w>
V H</w>
_th ành_
Li on
ược_ điểm</w>
th ông_tư</w>
VH TT
ngà y_tháng</w>
S hu
ột_ xác</w>
st an
m ít</w>
7 .</w>
n_tr ú</w>
tr eo_
truy ện_
ưới_ điện</w>
thanh_ lý</w>
bất_ bình</w>
cà_ rốt</w>
Z id
phát_ nổ</w>
ƯƠ NG</w>
h ét</w>
kí nh_
cầ u_h
bàn_ chân</w>
S ta
nó n</w>
el e</w>
Á -
C ry
L -
NAS A</w>
h acker</w>
m ày_
liên_ quân</w>
ti nh_trùng</w>
y es</w>
Teh ran</w>
đường_ cong</w>
do l
Bảo_ hiểm_
t ar
H ạt</w>
è _
H ình</w>
12 .000</w>
19 50</w>
ng ùi</w>
ic s</w>
v in
Băng_ Băng</w>
th ấu_hiểu</w>
ro s
Trần_ Quang_
_tr anh</w>
M y_
M ong</w>
H az
mass age</w>
cây_ số</w>
a we
k ế
b ù
đường_ hầm</w>
ch er</w>
ti f
Tr ân</w>
T óc_
17 0</w>
l ều</w>
Y aho
liê n_thông</w>
mong_ manh</w>
Im ages</w>
đẹ p_trai</w>
p t</w>
qu ả_
phòng_ bệnh</w>
Black Berry</w>
Địa_ Trung_Hải</w>
w ell</w>
Điệ n_thoại</w>
Tình_ cảm</w>
1, 7</w>
V ượt</w>
K ẻ</w>
tử _tế</w>
hoà ng_tử</w>
khát_ khao</w>
ẽ_ ra</w>
osh enko</w>
7 5%</w>
b ao_trùm</w>
qu ả_th
D ường_như</w>
Atleti co</w>
4 00.000</w>
Nex t_
A _
P u</w>
giang_ hồ</w>
kho ai_
yc idae</w>
m ẹo</w>
GD VN</w>
vững_ vàng</w>
bán_đ ấu_giá</w>
ng_tr ách</w>
uộ t_
S- 400</w>
m ỉm</w>
địa_ danh</w>
ổi_ đời</w>
đá_ quý</w>
n é
h eroin</w>
Qu e
hỏ i_thăm</w>
d ầm</w>
D ựa</w>
h ương_
tr ại_
Giá _trị</w>
H iếu_
C Q
x ê</w>
huy ền_
T ường_
phòng_tr ánh</w>
k ong</w>
am in_
phấn_ khích</w>
vô _h
Sóc_ Sơn</w>
khuyến_ nghị</w>
r ụi</w>
h iền</w>
cầu_h ôn</w>
t e_
C lu
A th
hậu_ cần</w>
V iết</w>
ph iền_
đ ổ
đạ i_tr
En ter
k ẹp</w>
Zid ane</w>
bà_ xã</w>
Ng ũ
Nh ì</w>
tạ m_tr
cao_ quý</w>
Kr ông_
c ãi_
Đơn_ cử</w>
bản_ sao</w>
kh iết</w>
ạ c_sỹ</w>
Cơ _sở</w>
làm_th uê</w>
g õ</w>
l ờ</w>
S ỹ_
4 5
gia_ công</w>
V a
B ưu_điện</w>
Vina Phone</w>
Tuy ển</w>
bào_ chữa</w>
g ram</w>
v iễn_
nhân_ quyền</w>
chịu_ khó</w>
kịch _tính</w>
t am
Nguy ệt_
đầu_ gối</w>
Ma h
Tác_ giả</w>
Ng ọ</w>
phương_ hướng</w>
xo a</w>
thu ế_thu_nhập</w>
v í_như</w>
kh ô_
quả ng_trường</w>
Huy _chương</w>
_s ản_
Vương_Đình_ Huệ</w>
Hưng_ Đạo</w>
Don etsk</w>
tương_ xứng</w>
vội_ vã</w>
đầ u_th
Chi nhphu
ICT news</w>
Hoà _L
Ale x</w>
xá c_th
l ột_xác</w>
S uối_
ngập_ lụt</w>
ằ m_
hã m</w>
_ch ung</w>
ướ t_
cầm_ đầu</w>
S O
t ạt</w>
điện_t oán</w>
t ôm_
x ùm</w>
nh ăn</w>
Bus in
Thu_ Phương</w>
AF C</w>
kiế n_trúc_sư</w>
thanh_th iếu_
an a_
xe _l
độc_t ố</w>
P at
G ó
điểm_ nóng</w>
lí _do</w>
sáng_ giá</w>
Victor ia</w>
ak ar
Tiếp_th eo</w>
_sản_ xuất</w>
sát_th ủ</w>
ng_t iếng</w>
B ánh_
qu ýt</w>
ế_th ừa</w>
.com .vn</w>
vi ch</w>
K ỳ
M ag
H -
e va</w>
La_ Thăng</w>
tin_t ặc</w>
thoả_ đáng</w>
r ót</w>
197 7</w>
k ết_t
Đồng_ bằng</w>
Lê_ Quang_
0 1/
hiệp_ hội</w>
o k</w>
giải_ khát</w>
195 4</w>
quốc_ Anh</w>
Nh ơn_
Ả_R ập_
Ch í</w>
M E
diễu_ hành</w>
Sp ort</w>
qu ấn</w>
Ch ất</w>
t ạng</w>
Hu ỳnh</w>
_l ẻ</w>
Á i_
cal o</w>
GD ĐT</w>
s er
op tera</w>
T áo</w>
Bắc_ K
thu ật</w>
f o
xi -
b ùng</w>
_M il
B ạ
phản_b iện</w>
Khí _t
V ang</w>
kiểm_ sát</w>
Joh n</w>
M ẫn</w>
Chi_ phí</w>
đương_ đại</w>
adi nh
Ê N</w>
J ong_
tình_ nguyện_viên</w>
qu an_t
C ấp_
kho ai</w>
R ou
Wi- Fi</w>
Cer amb
Trước_ hết</w>
l at
Ph a</w>
Qu ế</w>
k iệt_
f a</w>
yêu_ quý</w>
ne o_
ở_h ữ
z o_
lâu_ đài</w>
cực_ đại</w>
khởi_ sắc</w>
Su p
Ceramb ycidae</w>
o va</w>
nữ_ giới</w>
D -
tràn_ đầy</w>
B ah
h ối</w>
phòng_ hộ</w>
4- 5</w>
D uyên_
Galaxy_ Note</w>
thầy_ cô_giáo</w>
Th uột</w>
Cap it
nhiệt_ điện</w>
Ý _
la h</w>
Chủ _nhật</w>
h ai_
Maz da</w>
Ch ry
B è</w>
mét_ vuông</w>
I N
tuổ i_tác</w>
ar us</w>
siêu_ sao</w>
New_York_ Times</w>
W HO</w>
nộ i_trợ</w>
tiề n_đ
cầu_ nối</w>
bàn_t án</w>
Hồng_ Nhung</w>
tiêm_ chủng</w>
ch ậm_
do n
thông_ cáo</w>
Tóc_ Tiên</w>
S ur
trong_ sạch</w>
m ấy_
khai_ quật</w>
nhiệt_ huyết</w>
l ưới_điện</w>
ao_ khát</w>
trên_ dưới</w>
_th ú</w>
phòng_ vệ</w>
tr èo</w>
M ạng</w>
Đình_ Dũng</w>
Hu awe
S I</w>
th ượng</w>
a to
ng_tr ữ</w>
hoan_ phim</w>
tho ại</w>
Chi_ Pu</w>
dân_ sinh</w>
ể_ hoá</w>
bà i_thuốc</w>
196 7</w>
sinh_ lý</w>
p to
L ại_
_dân_ phố</w>
_kh í</w>
ing s</w>
1. 3
m_th ị</w>
Kiến_ Thức</w>
hồi_ hộp</w>
S ky
C O</w>
Zing .vn</w>
K as
kế_t iếp</w>
bãi_ bỏ</w>
Đông_ Nhi</w>
Công_ ước</w>
TT- B
th ề</w>
B D</w>
thuế _suất</w>
kinh_ dị</w>
_m an</w>
r o_
Nguyễn_Tr ãi</w>
nam_ nữ</w>
b es</w>
th an
ng_tr ang</w>
b ằ
LĐB Đ</w>
đ iền</w>
Getty_ Images</w>
đè n_đ
c_th ăm</w>
c ọ</w>
giao _tranh</w>
th _
khởi_ hành</w>
M ưa</w>
học_ giả</w>
k in</w>
Bách_ khoa</w>
Tổng_ số</w>
_tr àn</w>
Tho a</w>
ắc_ nghiệm</w>
X K</w>
. net
T ý</w>
vụ n</w>
thủ_ phủ</w>
_nh ị</w>
Tin_ Tức</w>
Mậu_ Tuất</w>
D ro
căn_cứ_ quân_sự</w>
biế n_thể</w>
Đinh_ La_Thăng</w>
Seri e_
đầ u_lòng</w>
KT ĐT</w>
1/ 5</w>
g r</w>
Quang_ Hải</w>
Vir gi
phương_ châm</w>
ary_ Clinton</w>
_v ăn</w>
Nguyễn_ Công_
LĐ O</w>
sống_ động</w>
AN G</w>
b ắp_
cu ồng_
l ông_
VHTT DL</w>
B ến</w>
Thu_ Minh</w>
hoạch_ định</w>
dã _man</w>
Kh ai_
D iệp</w>
0 4
Atletico_ Madrid</w>
xu ất_thân</w>
R ạch_
k m2</w>
Ph ải_
m ép</w>
l ề_
ac e_
xu ất_tr
s ay_m
Le agu
r ắc</w>
hối_ hận</w>
H ứa_
chi m_
mạng_ công_nghiệp</w>
b ong</w>
seri es</w>
b ế_
Thủ_ Thiêm</w>
is co</w>
đ ính_
O x
Lý_ giải</w>
iề n_t
z y</w>
dư a_hấu</w>
Lav rov</w>
Ben z
B ông</w>
Internati onal</w>
ố_ viên</w>
kỉ_ niệm</w>
ab in</w>
à ng_l
tái_ chế</w>
t ảng</w>
R a</w>
cổ_ đại</w>
R en
Thành_ viên</w>
ự c_t
phải_ chăng</w>
thang_ máy</w>
7 50</w>
B ước_
Trịnh_ Xuân_
cao_ độ</w>
ù_l ao</w>
as _
xa_ xỉ</w>
Jack son</w>
v ành</w>
đồ i_
n ành</w>
Mi -
m ương</w>
h at
ần_tr ăm</w>
b ơi_
ch uộc</w>
Nguyễn_ Tiến_
Ngọc_ Sơn</w>
thừa_ kế</w>
Nguyễn_ Thiện_Nhân</w>
tồn_ kho</w>
thế_ là</w>
D ao</w>
Nhân_ vật</w>
1. 5
ni ng</w>
L im
_tr ắc</w>
Tuy ên</w>
T ấm</w>
gh e</w>
k V</w>
hợp_ chất</w>
đột_ xuất</w>
ik u</w>
S M</w>
S in
s to
il le</w>
tr ú_
D ầu</w>
c ưỡng</w>
đ o_
ẽ o</w>
tần_ suất</w>
3 5%</w>
d i_tr
vò m</w>
trăm_ năm</w>
t al
d ae</w>
n ập</w>
Đông_ Á</w>
X ô_
nh ồi</w>
ứng_ cử</w>
ưở ng_th
dự _tính</w>
L âu_
Jos e
0 5
Bá t_
Trương_ Thị_
Merced es</w>
K erry</w>
cả nh_tượng</w>
Nguyễn_ Duy_
lạnh_ lùng</w>
La_ Mã</w>
K it
ẩ m_tra</w>
ph ần_trăm</w>
ch ải</w>
tâm_tr í</w>
H it
Th ạnh_
trưng_ cầu_
Âm_ nhạc</w>
tình_ nhân</w>
e ar
vô _lý</w>
i e</w>
6, 5</w>
0, 5</w>
T ập
t am_
D ự
Â N</w>
c ine</w>
Th ìn</w>
Th er
Đất_ đai</w>
Nh ạc_sĩ</w>
T a</w>
điện_ năng</w>
sa u_
d g
chiế t_
Tr ụ
D ou
phim_ điện_ảnh</w>
ch ẳ
kh ao_khát</w>
i_tr ái</w>
thiếu_ sót</w>
Mông_ Cổ</w>
Lion el_M
dung_ dịch</w>
Ch ris
y a_
l ầu</w>
19 ,
Thuỷ_ điện</w>
to án_học</w>
x iếc</w>
xác_th ực</w>
G am
is to</w>
10 5</w>
động_ mạch</w>
nh ai</w>
i i</w>
tay_ đua</w>
G iêng</w>
thị _thực</w>
đ an</w>
đích_th ực</w>
G ab
kiểm_ lâm</w>
gắn_ máy</w>
m ông</w>
áp_ đảo</w>
VO V-
b àng</w>
e .</w>
lắc_ đầu</w>
lề_ đường</w>
s ổ
k -
dân_ ca</w>
7, 5</w>
C ổng</w>
W TO</w>
a_đ êm</w>
ng ấm</w>
Lionel_M essi</w>
NN- PTNT</w>
thường_ ngày</w>
Nguyễn_ Chí_
cấ p_t
Trẻ_ em</w>
Thượng_t ướng</w>
D y
đ ê_
thứ _tự</w>
to át</w>
B il
Điện_ ảnh</w>
Sa combank</w>
R ang
thăm_ khám</w>
lũ_ quét</w>
nhiễm_ khuẩn</w>
ng ũ
Ch u</w>
Đông_ Dương</w>
b iện</w>
trục_ xuất</w>
xe_ điện</w>
b iếu</w>
vò ng_tay</w>
_th ụ</w>
Lan_ Khuê</w>
nhỏ _lẻ</w>
t_t iếng</w>
hoàng_ gia</w>
4 00
ấp_ nập</w>
liệt_ sỹ</w>
vật_ nuôi</w>
N ói_
xe_ gắn_máy</w>
S ở_d
ăn_ ở</w>
HC B</w>
Ú t</w>
say_m ê</w>
ưu_t ú</w>
m_t ừ</w>
u_tr í_tuệ</w>
Sở_d ĩ</w>
th er
QĐ- UBND</w>
P en
kiế p</w>
nu de</w>
r ải</w>
d ụ
phản_ lực</w>
Hoa_ khôi</w>
mưa_ bão</w>
0 2
hồi_ sinh</w>
t ật</w>
tận_ mắt</w>
ọ ng_
197 1</w>
s ó
bạn_đ ời</w>
Kh ải_
Vương_ quốc_Anh</w>
điêu_ khắc</w>
Krem lin</w>
Ho t
A I
khá nh</w>
T ố_
e_ ngại</w>
K V</w>
ậ t_th
S ầm_
đ ậy</w>
ỵ _
1 m
ng e</w>
Lữ_ đoàn</w>
khó _tính</w>
cổ _thụ</w>
7 0.000</w>
Đô_ đốc</w>
tr u
ngh i_thức</w>
Per sie</w>
Hill ary_Clinton</w>
tươ i_t
Mon aco</w>
Á p_
Nh iên</w>
khoáng_ chất</w>
h _
Bắc_K ạn</w>
Kh ó</w>
Đặng_ Văn_
Ng ồi</w>
for d_
Đường_ bộ</w>
Gi adinh
k ế_thừa</w>
_c àng</w>
su l</w>
khé p_
Nh ắc</w>
W ay
bố c_thăm</w>
ăn_ khách</w>
phát_ minh</w>
đóng_ gói</w>
Í t_
s is</w>
N at
cai_ nghiện</w>
G iết</w>
w er
tiếp_ diễn</w>
V ườn</w>
t ơ</w>
thẻ_ đỏ</w>
i_d ối</w>
lập_ pháp</w>
R ad
n y_
nội_ chiến</w>
B iểu_
c ồng_
tiếp_ đón</w>
Form osa</w>
_C ông</w>
t ượng_đài</w>
E b
Kh iêm</w>
tur e</w>
triết_ lý</w>
hình_ dạng</w>
Thu_ Hà</w>
Infon et</w>
2 20</w>
Phương_ Trinh</w>
Th ân_
n ền_
miệt_ mài</w>
ở_hữ u_trí_tuệ</w>
Br us
P oly
N ậm_
Merced es-
Đ ặt</w>
th uộ
h án</w>
ta b
S ap
d ai</w>
HN X</w>
C ây_
n_tr ả</w>
Tr ưởng_đoàn</w>
rượu_ bia</w>
Jus tin_
cha_ con</w>
t ấp_nập</w>
Nguyễn_ Huệ</w>
định_ hình</w>
f i</w>
Ng ư</w>
đ ắc</w>
Jam es_
C ầm</w>
20 ,
m ời_
D O
_s ao</w>
T ưởng</w>
Ngh ề</w>
kha ng_trang</w>
tình_ cảnh</w>
196 9</w>
D ịch</w>
khai_ sinh</w>
el _C
_th ở</w>
Đặng_ Thị_
u_h ồi</w>
sơ_ đồ</w>
khai_ giảng</w>
U z
en e</w>
e e</w>
Ph ù_
d ời</w>
d ở
a tus</w>
Bal e</w>
Th e</w>
chẳ ng_thể</w>
th ụ_
tưởng_ nhớ</w>
Quả ng_trường</w>
bề_ ngoài</w>
phạm_ nhân</w>
L amb
b úa</w>
Thành_ Long</w>
yên_ bình</w>
y ến</w>
p ter
co i_thường</w>
Bern ab
ch u</w>
Th ổ</w>
khẩ u_hiệu</w>
CT CK</w>
g ar
t_t iêu</w>
M a</w>
nước_ hoa</w>
C TV</w>
toà n_thân</w>
m iếu</w>
P ol
e to
hoà n_trả</w>
Í t</w>
công_ chiếu</w>
las s</w>
tối_ ngày</w>
ham_ muốn</w>
x ốp</w>
es ta</w>
ng s</w>
o a</w>
tử _thần</w>
ng .</w>
khám_ xét</w>
o k
kh an_
P om
M ang</w>
m ò</w>
s ơn_
U P
Yê u_cầu</w>
O ff
ỗ i_
Guardi an</w>
d ồn_
z ab
song_ ca</w>
tho a</w>
tích_t ụ</w>
Đ ợt</w>
triều_ đại</w>
N as
đóng_ băng</w>
Bri dge</w>
Nhìn_ chung</w>
Ex im
ng_th ầu</w>
anp age</w>
c ia</w>
l u</w>
mệnh_ giá</w>
Re d
D ược</w>
ấ u_tr
th ẩm_tra</w>
công_ nghiệp_
A k
điểm_ cao</w>
Độ ng_thái</w>
th ốt</w>
Su arez</w>
m ủ</w>
fi e</w>
D r
Ab u_
tr ơn</w>
u_đ ương</w>
kiên_ cố</w>
Sản_ xuất</w>
m ứt</w>
Kiể m_toán</w>
Asi an_
Ho an</w>
gi ơ</w>
TT CK</w>
I X</w>
củ i</w>
ng_t ưởng</w>
giản_ hoá</w>
hoàng_ đế</w>
nhân_ cách</w>
ch at</w>
chủng_ loại</w>
quan _trắc</w>
th ối</w>
th ắt_
đồng_ cảm</w>
re b
thư_ ký</w>
Nhiệm_ vụ</w>
Sy d
phụ_t ùng</w>
Ple iku</w>
đồng_ phục</w>
thù_ địch</w>
Val ent
ap i
sinh_ dục</w>
os hi
D _
vil la</w>
Nis san</w>
e y_
u d
in s
học_ viện</w>
Tr ưa</w>
điề n_kinh</w>
ph o</w>
Phan_ Thiết</w>
lị ch_
Bernab eu</w>
g ửi_
định_ mức</w>
ec k</w>
Hu ấn_l
d ragon</w>
mã_ hoá</w>
n_đ áo</w>
văn_ chương</w>
b on
bánh_ chưng</w>
can_ ngăn</w>
gh t_
Ngo ạ
thú_ y</w>
C ứ
Tr ách_nhiệm</w>
G Đ
ch ảnh</w>
Le on
b ổ_
z er</w>
Bất_ ngờ</w>
An celo
T ào_
i_th ương</w>
LH P</w>
k ế_
ng án</w>
Geor ge_
mã nh_
bước_ ngoặt</w>
Cos ta</w>
quấy_ rối</w>
mẫu_ giáo</w>
i _thể</w>
đầu_ hàng</w>
vinh_ quang</w>
khủng_ hoảng_
Tr ở_
mát_ mẻ</w>
kh ử</w>
d áng_
ay_m ượn</w>
ngh iền</w>
Kiểm_ soát</w>
Th iết_
M ul
T CN</w>
H ợi</w>
UA V</w>
g áy</w>
T ính_
làm_ bạn</w>
3 20</w>
tho ả</w>
Mi ke_
Chánh_ án</w>
hu ng_thủ</w>
E -
tâm_t ư</w>
Bul g
nguy ệt</w>
Trần_ Hưng_Đạo</w>
Nam_ Từ_Liêm</w>
Ancelo tti</w>
wal k</w>
0 8
x ước</w>
Ngọc_ Hải</w>
Bel arus</w>
0 7
m ỹ_thuật</w>
K on
ph ồng</w>
g am
khép_ kín</w>
d ấ
d ụ</w>
8/ 3</w>
thanh_ xuân</w>
trang_tr ải</w>
tu ân</w>
ăn_ ý</w>
For bes</w>
no w
cấu_ hạ_tầng</w>
Ch ina_
Cal isto</w>
10 1</w>
yê u_đương</w>
l iễu</w>
T ốt</w>
cửa_ ngõ</w>
C ơn</w>
định_ nghĩa</w>
phân_ cấp</w>
I c
phòng_th í_nghiệm</w>
chia_ rẽ</w>
nó i_dối</w>
the n_
dẫn_ viên</w>
nước_ cốt</w>
ae -
Việt_ Đức</w>
tr ị
tay_ nghề</w>
blo g</w>
đứ ng_tên</w>
L Đ-
B i</w>
Mo sul</w>
chi_ bộ</w>
khan_ hiếm</w>
dư _thừa</w>
H am</w>
k ỉ</w>
b ung</w>
J i
T ống_
196 5</w>
eg ra
s on
trả_ đũa</w>
Po gba</w>
D mi
đất_ đá</w>
v ãn</w>
_l ục</w>
me g
Tr àm</w>
W oo
ch iêng</w>
biên_ soạn</w>
Th ắng_
Th ưa</w>
then_ chốt</w>
Phương_ Anh</w>
n_ màng</w>
Gaz a</w>
hợp_ lệ</w>
C ad
c ờ
t é</w>
W h</w>
Id li
ay_tr ực_thăng</w>
ur i</w>
Sân_ khấu</w>
di_tr uyền</w>
ng_tr òn</w>
Cơ _hội</w>
th áng_
chiếu_ phim</w>
vis a</w>
mã _số</w>
lo n
Hồ _sơ</w>
y ể
V an
w e</w>
v ay_mượn</w>
xuất_tr ình</w>
bóng_ chuyền</w>
Jo lie</w>
đồng_ đều</w>
bơi_ lội</w>
Nhật_ Tân</w>
ồng_tr ọt</w>
Phạm_ Băng_Băng</w>
ăn_ chơi</w>
A V
m ẩn</w>
tố c</w>
y an</w>
điểm_ chuẩn</w>
n ếm</w>
p ort</w>
s ờ</w>
Fer nand
nhân_ dân_tệ</w>
nh ủ</w>
v ed
n_ x
Tr iển_
kho anh</w>
Sab eco</w>
B und
dược_ phẩm</w>
phái_ đoàn</w>
con_ nuôi</w>
n at
l ơ</w>
Mur ray</w>
Ph ấn</w>
tà n</w>
Đ am</w>
O P
L az
_th ể_hoá</w>
đồ_ vật</w>
las h</w>
a_t ươi</w>
l ương_
Siêu_ mẫu</w>
m iên</w>
_h ạng</w>
th ê
Toàn_ cảnh</w>
ẽ m</w>
dược_ liệu</w>
x anh_
Hoài_ Đức</w>
Giao_ dịch</w>
B ờ_
Nhà n</w>
một_ chiều</w>
Phương_ Nga</w>
ng ắt</w>
Aw ards</w>
nhị p_
lịch_ sự</w>
u n_
chu ng_thân</w>
Haz ard</w>
Thế _chiến</w>
hành_ hạ</w>
Snap dragon</w>
đầu_th ú</w>
Qu al
Univer s
v ĩ</w>
i_tr ội</w>
b ay_
l ẩu</w>
hoa_ màu</w>
B ash
tr ăn</w>
Willi ams</w>
tác_ nghiệp</w>
cá ch_l
Ni co
gấp_ rút</w>
X per
bi n_
ch ar
New cas
p es</w>
3 /2017</w>
C ra
Tr ực</w>
K ính</w>
mặ t_tiền</w>
Cơ_ quan_
Tr ình_
ách _tắc</w>
Minh_ Châu</w>
U 22</w>
Th ao</w>
có_ ích</w>
Hồng_ Hà</w>
đích_th ân</w>
đư a_đ
ng_ nói</w>
giảm_ sút</w>
In di
v el
N ar
tên_ miền</w>
Th ất</w>
Ferr ari</w>
sa i_trái</w>
M ở
kho át</w>
Hà_ Văn_
S ỹ</w>
V ận_
tiền_đ ề</w>
không_ phận</w>
nh ược_điểm</w>
ngập_ úng</w>
dây_ nóng</w>
S T</w>
0 6
ph ượt</w>
giận_ dữ</w>
phạm_ pháp_luật</w>
ngoại_ lệ</w>
Xi ao
só ng_thần</w>
VN Đ</w>
3 /2018</w>
Pa tr
th ợ
Tr i_
201 7-
n_đ ọng</w>
Song_ song</w>
trục_ lợi</w>
Euro pa_
L ăng_
Ch risti
ph en</w>
chí ch</w>
it i</w>
h iển_
đa_ phương</w>
K ỷ_l
B CH</w>
cướp_ giật</w>
cộng_ sự</w>
phim_ ảnh</w>
lo s
ruộ ng_
Ma_ Thuột</w>
Tuy ệt_
A T</w>
Phan_ Thanh_
thâm_ hụt</w>
K er
b ội</w>
lập_ luận</w>
đường_ dẫn</w>
gián_đ iệp</w>
xấu_ xí</w>
X ung_
ad e</w>
phi_ cơ</w>
Buôn_ Ma_Thuột</w>
St .</w>
đầ m_
tồ n_đọng</w>
bọ c_th
l é
Ba gh
r ãnh</w>
cá _ch
Hu ân</w>
Liên_ Hiệp_
nghị _sỹ</w>
m icro
p_ Guardiola</w>
băng_ nhóm</w>
đà i_truyền_hình</w>
ne x
lưu_ diễn</w>
CHD CN
bọc_th ép</w>
thẻ_ vàng</w>
Châu_ Thành</w>
bất_th ành</w>
thờ _
H o</w>
X D</w>
chống_ đối</w>
E 5</w>
ma s</w>
B. Bình</w>
Por oshenko</w>
l ây</w>
F ir
l et
G .</w>
V iễn_
Abd ul
30 /4</w>
điệ n_lực</w>
ngoại_th ành</w>
m_ chán</w>
Bạ n_đ
t ơ
TN N</w>
Trương_ Hoà_Bình</w>
Phương_ Thảo</w>
u_ đủ</w>
ed ia</w>
Idli b</w>
quy_ phạm_pháp_luật</w>
đ ể_
CHDCN D_
Trần_ Đình_
h ốt</w>
xu ồng</w>
bu ông_
ật_ ngữ</w>
hạ m_
hạm_ đội</w>
_th ám</w>
H ết</w>
_t ại</w>
đến_ cùng</w>
ưng_ bừng</w>
CHDCND_ Triều_Tiên</w>
I sa
ôn_ sẻ</w>
báo_ điện_tử</w>
o_t âm</w>
S- 300</w>
Thế_ vận_
Ser gio_
bộc_ bạch</w>
kết_ cấu_hạ_tầng</w>
vac cine</w>
r à</w>
or gh
Man ila</w>
vấn_ nạn</w>
R anh</w>
nh ục</w>
thế_ mà</w>
nhà m_chán</w>
p a
tổ _dân_phố</w>
su ôn_sẻ</w>
hả o_tâm</w>
tối_ qua</w>
o ta</w>
đơn_ giản_hoá</w>
3 6
Ri o</w>
Tr uyền</w>
13 5</w>
mãnh_ liệt</w>
chiế n_t
1. 6
nộ i_trú</w>
Trụ _sở</w>
Tr ánh</w>
tà ng_trữ</w>
196 4</w>
f u
Tor res</w>
th iệt</w>
iêm_ kích</w>
8 .</w>
đường_ băng</w>
1/ 4</w>
kiểm_ chứng</w>
liên_ hoan</w>
B TV</w>
w at
V illa</w>
Pl ay
Ch ắc</w>
iề ng</w>
Amer ica</w>
luân_ chuyển</w>
e i</w>
I E
Washing ton_
nhà_ vườn</w>
b ứt_
triều_ đình</w>
sở _trường</w>
nh ằn</w>
Brus sel
ực_ hoá</w>
A y
Je ff
Giới_ chức</w>
tiềm_ lực</w>
do _thám</w>
cách_l y</w>
o xy</w>
Ne pal</w>
truy_ đuổi</w>
Ng à</w>
B ầu</w>
3 4
C oo
ai_ nấy</w>
m al
đánh_ cá</w>
kỳ _c
lập_ nghiệp</w>
Ngô_ Văn_
tạm_tr ú</w>
i_th ối</w>
g ò</w>
H óc_
11/201 7</w>
D en
chia_ cắt</w>
HO À
tử _thi</w>
mũ i_
Vương_ quốc</w>
ữ _văn</w>
Pe p_Guardiola</w>
n_l ao</w>
H ì
hấp_th u</w>
s ú
tổng_ công_ty</w>
b oo
N T</w>
Hướng_ dẫn</w>
Gi ữ</w>
ngậm_ ngùi</w>
đề _kháng</w>
kí n_đáo</w>
K ết</w>
amp ton</w>
hô i_thối</w>
s ầu_
G om
bất_ hạnh</w>
kỷ_ cương</w>
Ánh_ Viên</w>
b èn</w>
đâu_ đó</w>
po l</w>
horm one</w>
Ch o_dù</w>
h ar
10 8</w>
vũ_ công</w>
196 2</w>
hộ i_trường</w>
t ter
kiểm_ nghiệm</w>
bà n_thờ</w>
xo a_
g o_
K am
sai_ lệch</w>
M iếu</w>
Phương_ pháp</w>
tham_ vấn</w>
B í</w>
vũ _lực</w>
ch ôn_
u_ ch
H ap
M ất</w>
dẫn_ chương_trình</w>
av e</w>
Thà nh_t
An th
K iểu</w>
bi_ kịch</w>
sở _tại</w>
Xử _lý</w>
nghèo_ khó</w>
Europa_ League</w>
Top_ Model</w>
T ứ</w>
Phải_ chăng</w>
ch _dẫn</w>
tr y_
T ig
bộ_ ngành</w>
Nam_ bộ</w>
thanh_ long</w>
chủ _thể</w>
ac i
B ay</w>
phân_ cách</w>
đèn_đ ỏ</w>
t ụi</w>
enn is</w>
n ần</w>
c ược</w>
giao _thừa</w>
ND T</w>
Bến_ xe</w>
L or
thanh_thiếu_ niên</w>
c k_
nghị _lực</w>
Bạn_đ ọc</w>
Serie_ A</w>
cổ_ vật</w>
thụ _lý</w>
Bạch_ Đằng</w>
H ab
liệt_ kê</w>
b ạch_
iên_ cứu_
L and</w>
án_ mạng</w>
PV C</w>
Amer ic
Benz ema</w>
B ãi_
Đ áp</w>
Festiv al</w>
n eo</w>
S áng_
Ph ủ_
o_tr ộn</w>
Liên_Hiệp_ Quốc</w>
ti al</w>
hết_ lòng</w>
Trung_ bình</w>
gh ế_
Ch ăm_
bật_ mí</w>
Qu ất</w>
Kiểm_ sát</w>
A sia</w>
như _thể</w>
mư u_trưởng</w>
hung_ khí</w>
số_ đo</w>
Trần_ Phú</w>
h ỏi_
3 1.
cụ m_từ</w>
Cơ_quan_ chức_năng</w>
Tài_ xế</w>
như_ ý</w>
sung_ sướng</w>
trú ng_thầu</w>
Rol l
h ưng_
m -
ra s</w>
tin_ vui</w>
b ừa_
ng o</w>
zo_ Abe</w>
tố i_t
ít_ ỏi</w>
L eno
L ao</w>
F lor
f ol
nhìn_ chung</w>
B ạc</w>
Cam p</w>
Nap oli</w>
ọ p</w>
tắc_ nghẽn</w>
Cam_ Ranh</w>
k u
pp er</w>
tr ừ
f re
cầu_ nguyện</w>
Brussel s</w>
xá o_trộn</w>
ế _chế</w>
3 2
Ch a_mẹ</w>
cấ p_th
x íu</w>
car bon</w>
B ài_
bổ_ ích</w>
Ram os</w>
Huawe i</w>
lu ỹ</w>
Chuẩn_ bị</w>
HO SE</w>
Thành_ công</w>
tr án</w>
CQ ĐT</w>
I o
Che v
T ai_
Duy_ .</w>
đ ọ</w>
Giá p_
gi áng</w>
ớ p_
A CB</w>
giả i_thể</w>
bu l</w>
Nhất_ là</w>
Trở_ lại</w>
àng_l ọc</w>
n_thu ế</w>
b út_
giáp_ ranh</w>
Tây_ Sơn</w>
Lamb orgh
Ả_R ập</w>
ro r</w>
15 0
r us</w>
Shin zo_Abe</w>
lớ n_lao</w>
bế_ mạc</w>
a_ viên</w>
1, 1</w>
T iệp</w>
Ben z</w>
Pho ng_trào</w>
The_ Vo
t ương</w>
on idae</w>
o_l ường</w>
ệ n_tranh</w>
a_t ấn</w>
Hóc_ Môn</w>
m Ah</w>
ho ay</w>
y n
N LĐO</w>
B ỏ</w>
As ton_
tẩy_ chay</w>
thông_t in_
linh_ hồn</w>
Thuỳ_ Dung</w>
Bảo_ Anh</w>
Nh u
chá n_n
chán_n ản</w>
chu a_
2- 2</w>
c à
cat walk</w>
ì u</w>
tan_ vỡ</w>
phạt_ đền</w>
cá_ độ</w>
Tel egra
Tu -
D ân_trí</w>
ro s</w>
Qual com
hiệp_ ước</w>
D ol
_l ộ</w>
di o
S tar</w>
o_d ục_
Exim bank</w>
Yo nh
M óng_
Gi ấy_
bình_ phục</w>
á n_tr
nử a_đêm</w>
Trịnh_Xuân_ Thanh</w>
Gi l
P ap
ay _t
Po wer</w>
g ạo_
U ông_
tự_ vệ</w>
MI NH</w>
M ặc</w>
ay_ hoay</w>
hướng_ dẫn_viên</w>
Ro g
Chương_ Mỹ</w>
Cuộc_ chiến</w>
kh iếm_
Ca_ khúc</w>
dân_ quân</w>
6 .</w>
Ng hiệp</w>
_nh ạt</w>
Phạm_Công_ Danh</w>
làn_đ ường</w>
al em</w>
anh_ch ị_em</w>
Fran k
Ph ổ</w>
thẩm_ vấn</w>
an t</w>
tho ái_
gi ấm</w>
DN NN</w>
ác_ liệt</w>
d ậ
máy_b ay_trực_thăng</w>
lớn_ nhỏ</w>
tuyên_ án</w>
Hành_ vi</w>
Thanh_ Tùng</w>
n al</w>
chọn_l ọc</w>
Op en</w>
Kh ảo_
tuỳ _t
n òng_
D i_tích</w>
trông_ chờ</w>
ph ố_
âm_ đạo</w>
y_t á</w>
nh ang</w>
i_th oảng</w>
mar t</w>
Tố c_độ</w>
tập_t in</w>
Leno vo</w>
No o_
d ẫ
V ị_
an y
đầu_ quân</w>
Bang lad
u -
dương_ xỉ</w>
Đ ổi_mới</w>
ch ỗ_
b ỉ</w>
c ra
Phương_ án</w>
tr i</w>
Vid eo_
n_t ĩnh</w>
Ho á_
Lou is
chuyên_ sâu</w>
Một_ vài</w>
D al
thương_t âm</w>
Tự _do</w>
S ự_thật</w>
ng_tr ải</w>
l ơ_
tr a_tấn</w>
M ắt</w>
Lum ia</w>
e p</w>
Ướ c_tính</w>
anh_ đào</w>
điều_ phối</w>
Chinhphu .vn</w>
Trọ ng_tài</w>
er on</w>
Can nes</w>
bầu_ không_khí</w>
s a_s
2 40</w>
I P</w>
tươ ng_thích</w>
tai_ biến</w>
ập _tràn</w>
Hu n
Độ i_trưởng</w>
M i</w>
th êu</w>
Q Đ</w>
Th ú_
bối_ rối</w>
Rodri gu
Đ ậu_
is t</w>
đa_dạng_ hoá</w>
Quân_ sự</w>
đột_ nhiên</w>
L it
kh ốc</w>
j ec
chăm_ chút</w>
Ch ro
c ạo</w>
T our
truyền_th uyết</w>
H iến</w>
v en_
L ô</w>
r ỗng</w>
ng_t u</w>
trố n_thuế</w>
mô- men</w>
nhà_ xe</w>
đố m</w>
Du ẩn</w>
cờ_ bạc</w>
thứ _s
Phước_ Thịnh</w>
West_ Ham</w>
t ò
196 3</w>
Th .</w>
m ac
t à</w>
196 6</w>
Ấ n</w>
ông_ bầu</w>
Đ á</w>
Đ ề</w>
9 /201
wi ft</w>
iêu_l ưu</w>
- x
r ốn</w>
G ho
trọ ng_trách</w>
D ược_
Mar tin_
thâm_ nhập</w>
ho ài</w>
ú a_
V II</w>
tinh_ dầu</w>
hưng_ phấn</w>
biển_ báo</w>
trí ch_dẫn</w>
4 5%</w>
th ăng</w>
Tel e
cãi_ vã</w>
bỏ_ cuộc</w>
tươi_ sáng</w>
Pháp_ Luật</w>
rừng_ phòng_hộ</w>
tình_ nghi</w>
Th ới_
ý_ đồ</w>
b ầy</w>
H ano
14 %</w>
bằ ng_cấp</w>
tuyệt_ vọng</w>
J our
triệt_ phá</w>
to a</w>
Banglad esh</w>
l ẩ
Bl ack_
mẹ _
nhân_ công</w>
nhập_ học</w>
N -
S ử</w>
Th úc_
â y_th
th ôi_
Sain t-
S- TS</w>
ư_l ôi</w>
ín_ dụng</w>
s àng_lọc</w>
s h</w>
tác_ nhân</w>
cụ _thể_hoá</w>
p y
Đại_ hội_đồng</w>
nội_ các</w>
nh ét</w>
nh ắn_
g ắm</w>
l iệu_
Nati onal
Uz be
dân_ dụng</w>
ế n_t
l ầy</w>
T w
xô_ xát</w>
P in
thông_ lệ</w>
Cam era</w>
Z en
Th ọ_
Thị_tr ấn</w>
công_t ố_viên</w>
Đ ề
hôn_ mê</w>
N ụ</w>
r u</w>
d es
d am</w>
tre am</w>
cư_ xử</w>
thành_th ị</w>
VI II</w>
K yo
_Mil an</w>
G on
nghiêm_ minh</w>
điện_ ngầm</w>
Alex _
chuyển_ dịch</w>
ni lon</w>
t ệ
cao_ nguyên</w>
ou s</w>
hành_ quân</w>
Ic eland</w>
t ẩm</w>
Ch ăm</w>
ma il
chủ_ quản</w>
b ối</w>
Võ_ Thị_
Hồng_ Quân</w>
rid ge</w>
họ c_th
Bulg aria</w>
Thay_ mặt</w>
Ho ạ
Antoni o_
lư u_vực</w>
Ph an</w>
xa_ hoa</w>
r un</w>
D ư_luận</w>
Th ịnh_
s àn_
Ngọc_ Linh</w>
dứt_ khoát</w>
lo ét</w>
Sử u</w>
tr ườ
x ạ
h óc</w>
l en
Th ể</w>
nhà_ vua</w>
Thờ i_tiết</w>
B ì
Nh an_
sân_ khách</w>
tình_th ương</w>
Hoàng_ Nam</w>
p us</w>
Nam_ Em</w>
De_ Gea</w>
sắ c_s
kích_ cầu</w>
p oly
A G
Người_ mẫu</w>
Nguyễn_ Anh_
ch ạp</w>
Noo_ Phước_Thịnh</w>
tá n_thành</w>
thiên_ hạ</w>
M ap
Minh_ Tú</w>
A DN</w>
bàn_ ghế</w>
B ak
Gi ảng_
l s</w>
Al ber
si nh_trưởng</w>
Ba lot
iệu_ hoá</w>
E mi
Jo e_
nhà_ phát_triển</w>
l an_
thú _nhận</w>
chân_th ực</w>
10 /2017</w>
dịch_ chuyển</w>
bộ_ mặt</w>
ầ n_t
r ộn_
tiếp_ nối</w>
hoảng_ sợ</w>
hiện_th ực_hoá</w>
truy ện_tranh</w>
l ò
Phú_ Nhuận</w>
V iễn</w>
nam_ sinh</w>
Tr ans
từ ng_trải</w>
thông_tin_ đại_chúng</w>
A qu
Xuân_ Bắc</w>
trù ng_tu</w>
công_ du</w>
Jer us
cột_ sống</w>
Telegra ph</w>
5 0-
J ess
sản_ Việt_Nam</w>
y_ khoa</w>
In d
M en
Ho t</w>
CP I</w>
Thu_ Thuỷ</w>
d ong</w>
R au</w>
bá t_
7 /201
tu ng_t
n_s ử</w>
Fab re
tr ước_tiên</w>
vỏ n_vẹn</w>
ch ốc</w>
ấn_ phẩm</w>
R ẫy</w>
c ụt</w>
v al
Agu ero</w>
Bund es
kinh_t ế_thị_trường</w>
p ress</w>
a ha</w>
b ong_
B QL</w>
ập_ viên</w>
Đại_ lễ</w>
h ơi_
Se villa</w>
kh ông_t
đặc_ khu</w>
Ngân_ sách</w>
văn_ kiện</w>
Balot elli</w>
Pla za</w>
VN CB</w>
thổ _lộ</w>
Al g
nổi_ loạn</w>
vi et
M. U.</w>
Lợ i_dụng</w>
C Đ
Ph ượng_
biến_ cố</w>
t ưng_bừng</w>
l ượn</w>
CP TPP</w>
Ele c
gi ống_
4 /201
t ản</w>
ay s</w>
Ngọc_ Ánh</w>
Đức_ Thắng</w>
N ữ_
D àn</w>
cay_ đắng</w>
phương_ diện</w>
ou r</w>
cộ ng_tác</w>
F a
t ục</w>
thời_ khắc</w>
Ma x
S âm</w>
ph iêu_lưu</w>
Sup er_
Jack pot</w>
Mộc_ Châu</w>
đặt_ cọc</w>
Yonh ap</w>
n ức_
kỹ _càng</w>
yế m</w>
G ard
ị n</w>
Phú_ Mỹ</w>
lấp_ lánh</w>
194 6</w>
Th ống</w>
m ất_tr
The_F ace</w>
_d ầu</w>
es e</w>
Zu cker
sát_ viên</w>
CN V
Agri bank</w>
s se
Inter _Milan</w>
M ão</w>
chủ ng_tộc</w>
1. 7
chân_t ay</w>
neo_ đậu</w>
el le</w>
người_ quản_lý</w>
t r</w>
ngh iên_cứu_
c y
Khám_ phá</w>
D i</w>
Móng_ Cái</w>
St am
B ãi</w>
đồng_ bọn</w>
o ff
Thành_ Công</w>
25 0.000</w>
m or
1 1%</w>
J ames</w>
B P</w>
Next_ Top_Model</w>
quan_t ài</w>
nhạc_ cụ</w>
hạ _l
li ve</w>
M ãi</w>
Manchester _City</w>
xe_ bọc_thép</w>
z ia</w>
Co .</w>
Syd ney</w>
r ông</w>
u_t óm</w>
D er
Fabre gas</w>
N 1</w>
Bến_ Thành</w>
phân_ huỷ</w>
sa_s út</w>
truyền_ đạt</w>
du ệ</w>
Ph ối_
lẩ n_tr
S car
H y</w>
vượt_ bậc</w>
L ớp</w>
Por s
F oo
thần_th ái</w>
Eli zab
p le
lu ậ
sel fie</w>
trại_ giam</w>
Nguy _cơ</w>
nợ_ nần</w>
K ị
6 /2017</w>
n ạt</w>
G .
D ri
M ộc</w>
m es</w>
Yaho o</w>
D ũng_
suy _d
V ĩ_
sắc_s ảo</w>
_d ĩ</w>
dẫn_ chứng</w>
mũi_ nhọn</w>
T Đ
La ur
C av
e w
v uốt</w>
nh ọc</w>
ấp_ ủ</w>
s ởi</w>
ly_ dị</w>
b r
I T</w>
ó p</w>
_d uyên</w>
W E
Danh_ pháp</w>
tiền_ án</w>
choáng_ váng</w>
The_ Blu
thứ_ bảy</w>
n_ kẽ</w>
Bus h</w>
V ar
K ênh</w>
xây_ dựng_
S um
3 3
s ọc</w>
a _th
đường_ nét</w>
thời_ cơ</w>
gửi_ gắm</w>
19 30</w>
Cuộc_ đời</w>
khôn_ ngoan</w>
hoa_ văn</w>
ượng_th uỷ_
áp_th ấp</w>
ượng_thuỷ_ văn</w>
18 %</w>
quản_ lý_
2, 3</w>
Th uốc</w>
g ọt</w>
Dail y
M àn_
chí n_
Uzbe kistan</w>
giả _thuyết</w>
gánh_ chịu</w>
d y
B ồ</w>
ho t
ca fe</w>
k Wh</w>
ng ần</w>
C ai_
t ớ</w>
nh_t inh</w>
me x</w>
vũ_ đạo</w>
ch át</w>
Newcas tle</w>
Lệ_ Quyên</w>
U r
Trịnh_ Đình_Dũng</w>
je ans</w>
Haw ai
k ét</w>
G S.TS</w>
l ặp_
Việt_ Anh</w>
v est</w>
a_đ ựng</w>
20 22</w>
L ão</w>
Ho us
Á- Thái</w>
O l
đối_ chiếu</w>
Thuỵ_S ỹ</w>
ph ổ</w>
T ay_
v ẫy</w>
k ẽm</w>
nội_t ạng</w>
ch ne
Ít_ nhất</w>
ngắn_ gọn</w>
on -
Chri st
sao_ chép</w>
thủ_ khoa</w>
Rom ania</w>
Ngh ĩ</w>
đại_t á</w>
ây_th ơ</w>
Hyund ai_
Nguyễn_Tấn_ Dũng</w>
H iểu</w>
giải_ độc</w>
ts al</w>
b ột_
khởi_ xướng</w>
quy ện</w>
hoà _t
chuyể n_thể</w>
dân_ chúng</w>
Hoàng_ đế</w>
u ông</w>
Ra fa
thô i_th
G a</w>
J i_
đại_ lộ</w>
chứ a_đựng</w>
n ung</w>
qu ặng</w>
tất_ bật</w>
Tr ò
ce pt</w>
A vi
cô n_đồ</w>
điều_ dưỡng</w>
Minh_ Đức</w>
11/201 6</w>
thâ u_tóm</w>
Th ụ</w>
ké m_
l iều_
Ý _tưởng</w>
T it
nòng_ cốt</w>
cực_ kì</w>
lộ n_x
lộn_x ộn</w>
ở i_thế</w>
giá o_dục_
s _S
Đinh_ Dậu</w>
Minh_ Anh</w>
nhân_ khẩu</w>
a nh_t
S ul
bóng_ rổ</w>
hà n_
ch ài</w>
thời_ sự</w>
Jerus alem</w>
201 5-
bộ_ cánh</w>
mu s</w>
2, 2</w>
P rin
T ầm</w>
10 2</w>
ng ư_lôi</w>
công_nghiệp_ hoá</w>
A v
ưng_ ý</w>
ẹn_ ngào</w>
D iện_tích</w>
giải_t án</w>
tay_tr ái</w>
Sil va</w>
nhân_t ài</w>
iê ng_
_h iếp</w>
Zucker berg</w>
cách _chức</w>
ig u
S ương</w>
T es
ng ói</w>
M et
ng ó</w>
u ỷ
_s ữa</w>
ng ây_thơ</w>
thứ _hạng</w>
nh ổ</w>
Vũ_Đức_ Đam</w>
S eo</w>
D ĩ_nhiên</w>
tạm_ ứng</w>
Mari a_
war e</w>
To ản</w>
n ame</w>
Đ iện_t
T à_
đường_ dây_nóng</w>
tập_ quán</w>
David _
quái_ vật</w>
bứt_ phá</w>
10 3</w>
o -
Tr anh</w>
ngo an_
đăng_ kiểm</w>
M ol
i u</w>
k a_
n an_
Ghi_ nhận</w>
n uố
tố_ giác</w>
et s</w>
đưa_đ ón</w>
J akar
S o_
J as
trong_ lành</w>
hạn_ hán</w>
l _S
d ĩ_nhiên</w>
Lã nh</w>
_s óng</w>
eto o
Nguyễn_Đức_ Chung</w>
Tr ịnh</w>
n_t ụ</w>
un -
q a</w>
se dan</w>
thi_ cử</w>
li ga</w>
w an</w>
uố ng_
Đỗ_ Văn_
b ook</w>
P ed
m ơ
đổ_ nát</w>
ng_tr ầm</w>
Một_ khi</w>
tuần_ lễ</w>
TB KT
VI P</w>
Giám_ sát</w>
Eb ola</w>
nhất_ quán</w>
Việt_ Hương</w>
Tổng_ cộng</w>
yo ga</w>
co n_tr
nh óc</w>
Bec kham</w>
v òi_
đ ài_
lập _trình</w>
s ư_đoàn</w>
d iều</w>
sầu_ riêng</w>
Y an
in i
Al bum</w>
thân_ cận</w>
so ái</w>
Sh e
giết_ hại</w>
E X
Đài_ Truyền_hình</w>
nước_t iểu</w>
2/ 9</w>
T CT
thu s</w>
Ne u
B ạch</w>
chế_t ác</w>
MH 370</w>
Mir ror</w>
vô_h iệu_hoá</w>
o b
uy _hiếp</w>
n is
6 50</w>
Kh ương_
B ent
FB NV</w>
bất_ an</w>
a b</w>
Cộng_ sản_Việt_Nam</w>
Th eo_
M ật_
D ự</w>
5 50</w>
Tu ổi</w>
P y
5 /201
L ên</w>
vòng_ quanh</w>
b ực_
c abin</w>
ng ơ</w>
Hiệ n_tượng</w>
quản_lý_ Nhà_nước</w>
_s âu</w>
ừ _sâu</w>
c_tr ừ_sâu</w>
Chung_ kết</w>
g ương_
7 /2018</w>
at o</w>
thiết_ giáp</w>
O t
1. 8
A B
tranh_ giành</w>
lo ay_hoay</w>
th ỏ</w>
ro ck</w>
nghi_ án</w>
trấn_ an</w>
Thu_ Hằng</w>
Hải_ Châu</w>
Tr ại</w>
Hà_ Anh</w>
Thanh_ Hải</w>
chắc_ hẳn</w>
buồn_ bã</w>
điều_ chuyển</w>
v ôi</w>
tr ưởng_đoàn</w>
ph a
thảm_ sát</w>
ch in
C ư_
ter s</w>
2 /201
b le</w>
Thuỷ _sản</w>
th ầm</w>
gi ỏ</w>
đ ời_
Nguyễn_ Du</w>
13 %</w>
du c
E mail</w>
sữ a_tươi</w>
ĐK VĐ</w>
o v
Vân_ Đồn</w>
Vn Media</w>
sắ c_t
kiên_ cường</w>
gia_ cố</w>
O ri
u p
Ngọc_ Hân</w>
S ở_
Minh_ Khai</w>
Đinh_ Văn_
Pan ama</w>
ch ật</w>
s tics</w>
tá i_diễn</w>
ng òi</w>
G Hz</w>
M ẫu_
ne i</w>
kho ắn</w>
Vi k
O u
Hoàng_ Trung_Hải</w>
S an</w>
r ử
bản_ nhạc</w>
phủ _sóng</w>
thực_ dân</w>
chỗ_ đứng</w>
h át_
Car lo
cây_ cối</w>
tr úng_
Doanh_ nhân</w>
I A
ph ế_
biế n_t
M and
Bol ero</w>
Nguyễn_ Huy_
ngắn_ ng
táo_ bón</w>
ghế_ ngồi</w>
iệ t_t
kh úc_
buồn_ nôn</w>
xây_ lắp</w>
B ách</w>
thă ng_trầm</w>
M ỹ_thuật</w>
Busin ess_
b ầm</w>
No u_
al _P
oo n_
Ý .</w>
sp a</w>
if i</w>
6 5%</w>
áp_th uế</w>
8 /201
co p
Nhà_ xuất_bản</w>
z h
phi_hành_ đoàn</w>
_tr ánh</w>
chí nh_th
Nh ậ
Tây_ T
thự c_tập</w>
N ag
ê- kíp</w>
8 5%</w>
Hawai i</w>
n y
c ương_
l ùn</w>
ăn_ cắp</w>
hữ u_h
TBKT SG</w>
I a_
chiến_ hạm</w>
Ấn_ Độ_
Phá o_thủ</w>
th ám_
el lo</w>
đèn_ pha</w>
K om
Nh iếp_
Ar ena</w>
Hương_ Tràm</w>
Dmi try_
ng_t iền</w>
c c</w>
nh oáng</w>
shi p</w>
se u
ti l
L en
ado r</w>
tu p</w>
6 00.000</w>
Kh mer</w>
ghi_ điểm</w>
chne um
k i_
đỉnh_ điểm</w>
b ênh</w>
T ỵ</w>
St ore</w>
khoẻ_ khoắn</w>
nổ i_trội</w>
1. 300</w>
thuố c_trừ_sâu</w>
tái_ phát</w>
Ngoạ i_thương</w>
ch ước</w>
tham_ chiến</w>
or i
Công_ giáo</w>
r ạn_
ngon_ miệng</w>
tự _lập</w>
To wer</w>
Ch ic
nh .</w>
The_Blu es</w>
xỉ u</w>
b ưu_điện</w>
Th ì</w>
Ku al
1 13</w>
ú n_
ngh ẹn_ngào</w>
đặc_ quyền</w>
C anh</w>
Giải_ phóng</w>
Màn_ hình</w>
hay_ biết</w>
Ni ê</w>
l ỡ
Hữu_ nghị</w>
Đảng_ Cộng_sản_Việt_Nam</w>
ell e_
Nhà_th ờ</w>
cải_t ổ</w>
l ười</w>
đ u_đủ</w>
Th ủ</w>
Thiếu_t á</w>
Dis ney</w>
Rich ard_
chật_ vật</w>
Nou_ Camp</w>
X .
hoá _trang</w>
di ng</w>
Chế_ độ</w>
Phương_ Thuý</w>
Bộ_ Chỉ_huy</w>
Rodrigu ez</w>
Viện_ Kiểm_sát</w>
Bundes liga</w>
né _tránh</w>
O LED</w>
u_th oát</w>
V ệ
iề n_l
4 /2017</w>
b ệ</w>
đ ậ
Nhận_ định</w>
C am</w>
một_ mặt</w>
Su n_
ch ủ_t
Th ái_tử</w>
ăn_ học</w>
phải_ chi</w>
Man u
nh_t ính</w>
s ưởi</w>
Leic ester</w>
T S
Su- 30</w>
6- 7</w>
i_tr í</w>
m in</w>
ar do_
d ì</w>
Jo bs</w>
ph ức_
Kho ảnh_khắc</w>
Mercedes- Benz</w>
Lê_ Đình_
chửi_ bới</w>
an d_
tinh_ bột</w>
17 %</w>
ổn_ ngang</w>
d ò
Đ ương_
tinh_ giản</w>
c ộ</w>
E reb
I F
2, 4</w>
Hy men
is h</w>
Ju an_
Gen er
J un
Kim_ Jong_
gi ày_
_t ật</w>
20 /11</w>
Nhà_ đầu_tư</w>
tẩ u_thoát</w>
r ợn</w>
r ạn</w>
o_d ược</w>
S tra
Chợ_ Rẫy</w>
đà ng_hoàng</w>
tự_ quản</w>
t es
cảm_th ông</w>
ngắn_ng ủi</w>
co la</w>
tho á
T am
Th ử
or i</w>
SG GP</w>
ế t_tr
ng óng</w>
mar keting</w>
Ereb idae</w>
i j
N Q</w>
T GĐ</w>
19 0</w>
san_ lấp</w>
9 8%</w>
phù _
Quốc_ khánh</w>
Del hi</w>
chứ ng_th
thứ_s áu</w>
mộ t_tr
Tiế ng_nói</w>
c àng_
ch en_
thờ_ ơ</w>
ấm_ cúng</w>
bừa_ bãi</w>
k ình_
t am</w>
th ắng_
qua_ mặt</w>
k iều_
G M</w>
C lar
sát_ cánh</w>
J enn
6 /2018</w>
báo_ hiệu</w>
al o</w>
Quang_ Minh</w>
Giáo_ hội</w>
Xác_ định</w>
oài_ người</w>
ra c
Stam ford_
Giáo_ viên</w>
Ins ider</w>
0 .
CR 7</w>
thầ y_thuốc</w>
rượu_ vang</w>
ba ba</w>
E cu
Ch ư_
tần_ số</w>
xuất_ viện</w>
u_l ông</w>
qui_ định</w>
Địa_ chỉ</w>
b èo</w>
su m</w>
mẫu_ mã</w>
tuần_ hoàn</w>
nhà_ xưởng</w>
L iên_t
N Q-
Vân_ Anh</w>
m ẫn</w>
đáp_ án</w>
Ph ổ_
cách_ mạng_công_nghiệp</w>
s t_
Dung_ Quất</w>
vô_ vàn</w>
u_tr ang</w>
us _
h iến_pháp</w>
thị_ phi</w>
khoa_học_ kỹ_thuật</w>
H ay
Ki r
b ục</w>
Liên_ hoan_phim</w>
k èo</w>
Ho me</w>
Văn_ học</w>
v in</w>
1- 3</w>
Kỷ_ niệm</w>
T as
ill er</w>
yê n_tĩnh</w>
công_ chứng</w>
F el
South ampton</w>
ớ i_t
an us</w>
X .</w>
der land</w>
Mit sub
c à</w>
nô _lệ</w>
lo ng
bã o_
k er
Th ơm</w>
th ánh_
Đă k_
T erry</w>
a_L um
giữ _chân</w>
tà n_t
Gar eth
bong_ bóng</w>
nội_ đô</w>
thành_ phẩm</w>
il la
khiếu_ kiện</w>
CC I</w>
tr ũng</w>
I n</w>
tận_t ình</w>
tr ôi_
bất_ động</w>
ph ù</w>
etoo th</w>
M ở</w>
k ali</w>
Nguyễn_ Trung_
m ận</w>
E PA</w>
B ưởi</w>
tuyệt_ chủng</w>
ph im
Angela_ Phương_Trinh</w>
am_ hiểu</w>
b ồi</w>
nh úng</w>
K HCN</w>
Th y</w>
ật_t ử</w>
Thật_ ra</w>
s et
B it
ch ênh</w>
sông_ nước</w>
F uk
n ấm_
re c
ch _nh
A j
trung_ chuyển</w>
r ùng_
f anpage</w>
Mitsub is
_th ạch</w>
P ic
dây_ điện</w>
_t ù</w>
v òi</w>
_l òng</w>
v ung</w>
nh_th iêng</w>
hải_ ngoại</w>
kĩ _thuật</w>
Đại_ uý</w>
W S</w>
_c ốc</w>
phức_ hợp</w>
tin_ học</w>
tiề n_sử</w>
Địa_ điểm</w>
nhân_ ái</w>
res ort</w>
thân_ quen</w>
I .</w>
n_t ừ</w>
bỗng_ nhiên</w>
S us
Ng a-
Lu ôn</w>
ê_b ai</w>
23 ,
l ươn</w>
phụ _trợ</w>
Chev ro
Willi am_
Nhi_ đồng</w>
1. 9
Đỗ_ Thị_
n é</w>
ng ời</w>
Vin as
Nhà_ Bè</w>
ch ững</w>
thu_ xếp</w>
TT HC</w>
V ào_
Do anh</w>
Giáo_ hoàng</w>
độ_ chính_xác</w>
ở_r ộ</w>
Công_ nhân</w>
gy m</w>
Việ c_làm</w>
mô tô</w>
16 %</w>
L il
196 1</w>
kh ổ_
tàu_ hoả</w>
7 /2017</w>
thâm_ niên</w>
c ản_
D P</w>
c ằm</w>
_ch ỉ
W el
So f
_chỉ _huy</w>
D A
tr ống_
ph ông</w>
0- 0</w>
đ ỏ
phúc_ lợi</w>
Ch er
as e</w>
tàu_ điện_ngầm</w>
l ẽ_ra</w>
vố n_
lồng_ ghép</w>
Kual a_Lum
M b
195 8</w>
trấn_ áp</w>
S ư_
nấu_ nướng</w>
Ngô_ Thị_
b ội_
i ch
B éo</w>
cầu_ cứu</w>
w ard</w>
tự_ giác</w>
Chry so
tay_ lái</w>
Ho u
người_ hùng</w>
P enn
c ẩm</w>
Tay lor
Nov os
kiện_t oàn</w>
đổ_ xô</w>
kho an_
Nhà _trường</w>
ă n_tr
h ăng_
ban_ công</w>
Tr o
thám_ hiểm</w>
il las</w>
đồng_ hương</w>
qu ê_
lôi_ cuốn</w>
chỉ nh_trang</w>
Có _vẻ</w>
Ukra ine_
bất_t ỉnh</w>
Thu_ Hương</w>
F .
M A
_th ập_
tr ói</w>
Vin ash
b ẩy</w>
Kaz akh
ch ê_bai</w>
ng ổn_ngang</w>
kh ả
Gen eva</w>
Hoài_ Nam</w>
u_th ơ</w>
Enter tain
s ô</w>
biểu_ cảm</w>
v iế
T ần_
Harv ard</w>
y e</w>
pi ano</w>
Đà i_truyền_hình</w>
C ấm</w>
_v oi</w>
ám_ chỉ</w>
ó n_
6 0-
_nh ớ_tr
khẩ u_trang</w>
_nhớ_tr ong</w>
X a_
c uống</w>
iều_l ĩnh</w>
L O
.. ..
9 0.000</w>
s ả</w>
trang_tr ọng</w>
s in
Đồng_ Tâm</w>
x ung</w>
K id
l óc</w>
h ộ_
Đ iền_
ro om</w>
đoàn_ quân</w>
nh ả</w>
Car ol
OP EC</w>
M àu_
Stamford_ Bridge</w>
M ũ
Hậu_ vệ</w>
thả o_dược</w>
gh ê_
ad _
pi ng</w>
lớn_ mạnh</w>
H ầu_
gi n
d à
gi ang</w>
195 9</w>
Ban_ chấp_hành</w>
Ng ắm</w>
Internati onal
Ali baba</w>
f er
Way ne_
V E
t ụ</w>
Tập _trung</w>
tờ _trình</w>
Ecu ador</w>
TN MT</w>
Mi n_
ph iên_
5 /2017</w>
Đông_ Âu</w>
Vietin Bank</w>
H ổ</w>
ell er</w>
Th ạc_sĩ</w>
s ự
9 /2017</w>
Mạnh_ Hùng</w>
2 .0
l oài_người</w>
con_tr ẻ</w>
hoang_ sơ</w>
M O</w>
T ầng</w>
n .
Thủ_ môn</w>
ải_ phân_cách</w>
Hồ_ Văn_
lưu_ động</w>
L eb
P S</w>
định_ dạng</w>
Sir_ Alex</w>
V ệ_
ài_ ba</w>
Emi rates</w>
Đ ưa_
binh_ sỹ</w>
Gi áo</w>
Ex c
J et
lo ãng</w>
chuyể n_tiếp</w>
xấu_ số</w>
Au to
xã_hội_ chủ_nghĩa</w>
th er</w>
dương_ vật</w>
kỷ_ nguyên</w>
Đề_ xuất</w>
S ữa</w>
Vật_ lý</w>
T ịnh_
rạn_ nứt</w>
L ậy</w>
mu la</w>
tổ ng_t
phim_ hoạt_hình</w>
Cát_ Tường</w>
Bảo_t ồn</w>
tr á
Hà _thành</w>
ch ánh</w>
20 h</w>
tổng_ đài</w>
tiểu_ đoàn</w>
li nh_thiêng</w>
Sau di</w>
vò ng_tròn</w>
Bước_ đầu</w>
Giá _
tư _th
U yên_
_s ăn</w>
8 /2017</w>
xã _
x cơ
vô_t ội</w>
Vũ_ Quang</w>
cuồng_ nhiệt</w>
r ốt_
bệ _
Ngh ị
Kuala_Lum pur</w>
tr ỗi</w>
da nh_thủ</w>
Al _
M ầm_non</w>
d ương_t
h ưởng_th
Cố_ ý</w>
khoai_ lang</w>
a .</w>
L ư</w>
thương_ nhân</w>
A 1</w>
phát_ xít</w>
201 0-
r ơm</w>
thâ n_thể</w>
tang_ lễ</w>
m y_
K ý</w>
đ an_
E .
ị_ hoá</w>
hữu_h ạn</w>
Văn_ Miếu</w>
TN -
kh ôn</w>
3. 500</w>
Ara b</w>
í p</w>
Đồng_ H
nhảy_ múa</w>
đoà n_tụ</w>
Động_ cơ</w>
Ph ùng</w>
K ế_t
Ch áy</w>
Kazakh stan</w>
Đ ơn</w>
tươi_t ắn</w>
I chneum
vật_ lộn</w>
Bru nei</w>
_l iệt</w>
ta i_tiếng</w>
B ử
Thiê n-
ý p</w>
dị _tật</w>
phê_ phán</w>
co ver</w>
L ệnh</w>
Air bus</w>
M B
3- 2</w>
J ae-
ặ c_s
2016- 2020</w>
thông_ quan</w>
ho ành_
Phạm_Văn_ Đồng</w>
phụ_ gia</w>
E di
lop p</w>
x ông_
th ổ_
k iêu_
ph ẫu</w>
Nhà _l
v ạ</w>
L ối</w>
24 ,
nh _trường</w>
bi t</w>
cấp_th iết</w>
3 5.000</w>
d ằn_
_v ò</w>
_tr ần</w>
thu ật_ngữ</w>
th ước</w>
đ ứng_
chúng_ em</w>
i_tr ị</w>
ân_t ạo</w>
M ak
E .</w>
api xel</w>
ca -
c ũ_
ay -
dương_t ính</w>
3 65</w>
l ễ
o_ bạc</w>
ng ập_tràn</w>
v ườn_
G ây</w>
ăn_ việc_làm</w>
L CD</w>
Thành_t ích</w>
Ken ne
S am_
Q Đ
Nh u_cầu</w>
B àn_
B our
6 /2016</w>
l iều_lĩnh</w>
j an</w>
tu a</w>
Vườn_ quốc_gia</w>
20 /10</w>
vui_ lòng</w>
Đồng_ Văn</w>
ờ m</w>
Ch ạy</w>
qu ẩn</w>
quốc_ dân</w>
an ce</w>
Hương_ Khê</w>
ài_ liệu</w>
m_t ài_liệu</w>
ic a_
Luk aku</w>
Lê_ Xuân_
phá_ giá</w>
hay_ là</w>
19 40</w>
d ải_phân_cách</w>
P r
giao_ ban</w>
cung_ điện</w>
công_ ăn_việc_làm</w>
Chri s_
gương_ mẫu</w>
v à
ah _
B ánh</w>
V Đ
c _thể</w>
7 /2016</w>
Roy ce</w>
cứu_ chữa</w>
Y _
nh_t ụ</w>
ph y
du_ học_sinh</w>
Gi àu</w>
PP P</w>
K lopp</w>
S pi
bổ _dưỡng</w>
bản_ năng</w>
c ưỡi</w>
Ấ y</w>
Lê_ Hoàng_
mị n_màng</w>
al ty</w>
Dị p</w>
ne y_
hoà_ hợp</w>
5 5
H K
L ĐT
NS NN</w>
Thuỷ_ văn</w>
hiệu_ năng</w>
201 8-
Thái_ Tổ</w>
Ấn_Độ_ Dương</w>
bố_ con</w>
S ân</w>
D iên_
VH- TT</w>
lo w</w>
bền_ bỉ</w>
sàn_ diễn</w>
R .
đô la</w>
c ấn</w>
N ông_thôn</w>
Cai_ Lậy</w>
U n</w>
H ang-
bã i_t
chôn_ cất</w>
_h ồ</w>
Quy ết_
r iết</w>
v u_
nh_m ông</w>
tre et_
Th ôn</w>
thuộ c_
v ài_ba</w>
tra iler</w>
_l ịch</w>
Kim_ Liên</w>
C V</w>
r àng</w>
yêu_ sách</w>
R ượ
2 2,
g ập</w>
vô _hình</w>
l ừng_
5- 6</w>
Ty pe</w>
v ar
B án</w>
cựu_ chiến_binh</w>
nh o_
ọ i_
oà ng</w>
nguyên_ bản</w>
núi_ rừng</w>
Văn_ Toàn</w>
C D
c li
thường_ kỳ</w>
S P</w>
_th ị_hoá</w>
K il
giám_ đốc_điều_hành</w>
10 /2016</w>
_c ải</w>
Phát_ ngôn_viên</w>
c ạn_
con_ bé</w>
dân_ ý</w>
sách_ vở</w>
kỳ_c ựu</w>
giá m</w>
a ch</w>
Jakar ta</w>
B ầu_
Angela_ Merkel</w>
tê _liệt</w>
tô n_tạo</w>
P es
Tr av
3- 5</w>
kh an</w>
_h ộ</w>
ch y
S XH</w>
ck er</w>
c ậ
Đ ẩy_
s ói</w>
Van_ Persie</w>
tuỳ_t iện</w>
v i_tính</w>
thơ_ mộng</w>
nh ờn</w>
m au</w>
k ĩ_
Thẩm_ phán</w>
đ o_lường</w>
công_ nhân_viên</w>
tư_th ục</w>
bất_ hợp_lý</w>
in ae</w>
nước_ lớn</w>
tâm_ điểm</w>
Me kong</w>
h ùm</w>
đo_ đạc</w>
m ùa_
c ười_
c au</w>
T L</w>
nội_ soi</w>
úc_ xá</w>
ng_t ình</w>
H ạt_
bố _chung</w>
T à
T ần</w>
Than_ Quảng_Ninh</w>
động_ hoá</w>
at er
9 h</w>
m ùi_
vô _sinh</w>
Gu in
d ính_
m uống</w>
L iệt</w>
ur t</w>
ro i</w>
T ống</w>
T inh</w>
Ke vin_
Số _liệu</w>
bá n_trú</w>
28 ,
phân_t ử</w>
nhập_ ngũ</w>
Anth on
Huỳnh_ Văn_
Làm_ sao</w>
nh ộn</w>
đăng_ nhập</w>
B ou
in t</w>
s im
đôi_ lúc</w>
d r
Bal tic</w>
sắc_ lệnh</w>
e kip</w>
S or
giống_ hệt</w>
n ở_rộ</w>
đường_ đua</w>
Ph i
S ter
12 8</w>
ệ _nh
mộ c_mạc</w>
mặc_ định</w>
t ách_
hình_ như</w>
_tu ệ_nh
Hải_ Vân</w>
ba ch</w>
Chú a_
cưỡng_ hiếp</w>
_tuệ_nh ân_tạo</w>
ca i_trị</w>
Dương_ Văn_
Slo va
dạ _hội</w>
đạo_ luật</w>
9 /2018</w>
G ru
Ch ải</w>
sinh_ mạng</w>
tàu_ bay</w>
ỗi_ một</w>
Petro li
Ng ữ_văn</w>
đồ _s
Huấn_l uyện_viên</w>
2 30</w>
2 6,
do r</w>
mê nh_mông</w>
Vina co
i p
Ra q
t í</w>
u_tr í</w>
bó p_
nex press</w>
cạn_ kiệt</w>
Th iệu_
sát_ sao</w>
tỉ_ phú</w>
tab let</w>
Qu ầ
Đ á
thất_th ường</w>
H ắn</w>
bắt_ chước</w>
n ằm_
ph iến</w>
gi ỗ</w>
nhất_ quyết</w>
b ri
Nh ạc</w>
o ff</w>
khé t_tiếng</w>
Ki ng</w>
th ấ
đi_ sâu</w>
b our
ni ng_
San chez</w>
_d ỗ</w>
gi an
_C ar
ck et</w>
Giadinh Net</w>
M- TP</w>
kinh_ khủng</w>
xe_ cộ</w>
_nh ỏ</w>
Thanh_ Thảo</w>
tra i_trẻ</w>
Gra b
sơ_ kết</w>
5 /2018</w>
S on</w>
biên_ kịch</w>
đơ n_thân</w>
Franc isco</w>
k no
Ô _t
di esel</w>
ko v
z one</w>
Re d_
Leagu e.</w>
Gi r
nội_ lực</w>
ã nh_đạo</w>
ch òi</w>
Nhà_l ãnh_đạo</w>
r át</w>
Li ber
iễ m_
y l</w>
Ju ve</w>
danh_ nghĩa</w>
B iên_t
Dav id</w>
0 /
K ell
E st
Sm ith</w>
á o_t
_tr ắng</w>
SC IC</w>
V ành_đai</w>
ti on_
ang_ dở</w>
ẻ_t ín_dụng</w>
2 80</w>
Ngoại_ ngữ</w>
Glo b
m ớ</w>
quý_ báu</w>
Đ iểm_
am o
lừa_ dối</w>
xà_ phòng</w>
Đ ỉnh</w>
9 9%</w>
r ằm</w>
r ỉ</w>
r èn</w>
khác_ nào</w>
QL DA</w>
biến_ hoá</w>
z i</w>
than _thở</w>
Thái_ Sơn</w>
w in</w>
đ ẽ</w>
thiện_ chí</w>
nhà_ xuất_bản</w>
trọng_t ải</w>
tầm_ cỡ</w>
c ùng_
thuốc_ nổ</w>
Tr ương</w>
it ar</w>
bộ _nhớ_trong</w>
_d ân</w>
Đ ảm_
0- 1</w>
pháo_ binh</w>
dụ _dỗ</w>
ừ _
bị_ động</w>
bánh_ kẹo</w>
kho ét</w>
der by</w>
ứng_ cứu</w>
Phương_ Thanh</w>
một_tr iệu</w>
Y ing
Bí_ quyết</w>
ngoại_ hối</w>
súng_ máy</w>
Bash ar</w>
ượ m</w>
mong_ mỏi</w>
nguy ền</w>
Thu_ nhập</w>
phổ_ cập</w>
Ph ục_
hải_ đảo</w>
hạ_l ưu</w>
lừng_ danh</w>
Kh ó
nhanh_nh ẹn</w>
Geor ge</w>
hùng_ vĩ</w>
Sun derland</w>
th iêng</w>
T oshi
ngũ _cốc</w>
cao_ ốc</w>
bả o_thủ</w>
Ab ram
v ù
4 8
25 ,
Tr ùng_
Văn_ Quyết</w>
Mar k
trưng_cầu_ dân_ý</w>
đồ_s ộ</w>
S X</w>
V ỹ</w>
Công_ Sơn</w>
C es
ườ m_
nồng_ nhiệt</w>
tr ấn</w>
10 /2018</w>
X III</w>
AN TT</w>
Ph ụ</w>
ch ạm_
Diễn_ Châu</w>
Tàu_ ngầm</w>
Đ ám_
VA T</w>
tình_t ứ</w>
số_ hoá</w>
ồng_tr ứng</w>
chứng_ bệnh</w>
tinh_ hoa</w>
Ma ta</w>
d ang_dở</w>
m_t òi</w>
nhà_ kính</w>
đô _thị_hoá</w>
c ẩn</w>
dậ y_thì</w>
Ô_t ô</w>
thu n</w>
Tổ _hợp</w>
Austr ali
sú ng_trường</w>
S ala
4 /2018</w>
Quốc_ Oai</w>
Tou r</w>
Chiế n_tranh_
Park_ Hang_
Sự_ cố</w>
Đông_ Ukraine</w>
trắ ng_tay</w>
ph or
ngu ỵ
R ạng</w>
vui_ nhộn</w>
S VĐ</w>
F TA</w>
Con_ người</w>
F ed</w>
m es
Chí n</w>
Nguyễn_ Khắc_
ốt_ hoảng</w>
al an</w>
Địa_ lý</w>
ph a_tr
ký _hiệu</w>
ti dae</w>
b y_
Park_Hang_ Seo</w>
võ _sư</w>
Đẩy_ mạnh</w>
hệ_ quả</w>
c_th ường</w>
tò _vò</w>
H ạng</w>
thương_ yêu</w>
S ri_
th ôn_
đẹp_ đẽ</w>
chồng_ chéo</w>
sử a_s
Jour nal</w>
v el</w>
cản_ phá</w>
trường_ quay</w>
NGUYỄ N
t ần</w>
Thương_ hiệu</w>
bệ_ phóng</w>
E co
Th ôi</w>
vu i_t
chủ_ nợ</w>
phân_ định</w>
tì m_tòi</w>
ô_ mai</w>
u_t ạo</w>
khá c_thường</w>
u_đ ả</w>
sắp_ đặt</w>
er -
_S h
Quảng_ Đông</w>
Trang_ phục</w>
GP S</w>
e ch</w>
cha_ ông</w>
bức_ xạ</w>
k ĩ</w>
Vi en
thuế_ quan</w>
Đ ốc</w>
D ra
j et</w>
bình_ dị</w>
h 3</w>
Hạ nh_phúc</w>
TN- MT</w>
Mê_ Linh</w>
lu s
li st</w>
V CCI</w>
nhiễm_ bệnh</w>
tối_t ân</w>
l ăn_
x ách
áp_ suất</w>
Đ ời</w>
giường_ bệnh</w>
phản_ xạ</w>
gg s</w>
Tình_ báo</w>
27 ,
ano l</w>
nh o
chiếm_ giữ</w>
cứ u_thương</w>
hoà_t an</w>
d ẫu</w>
0- 2</w>
Điện_t ử</w>
Hồ_ Thị_
Cần_ Giờ</w>
n_đ àm</w>
ng ẫm</w>
trung_ hạn</w>
ưu_ hoá</w>
xách _tay</w>
194 7</w>
Đơn_ giản</w>
đạ i_th
X o
nhà_ phân_phối</w>
e ta</w>
to _t
Tr ái</w>
đe o_
v ơi</w>
s eo</w>
Sk y_
B ổ
Yam aha</w>
r ồ</w>
l ợp</w>
Hải_ Yến</w>
dâ y_th
trọ ng_thương</w>
Vol ks
địa_ ốc</w>
ơ -
nhà_ văn_hoá</w>
chính_th ống</w>
bu ồng_trứng</w>
phim _trường</w>
t án_
V e
m ồm</w>
Việt_ Hùng</w>
lỗ _ch
giáo_dục_ phổ_thông</w>
ph ôi</w>
hệ_ miễn_dịch</w>
k ìm</w>
ác_ mộng</w>
Su dan</w>
s ĩ
gi ằng_
z _
And y_
8 00.000</w>
v ặn</w>
ợ m</w>
err y_
ng_t ối</w>
Bo b
B R
Cảng_ hàng_không</w>
id _
un d</w>
Ch ữ
ch ớp</w>
th ói</w>
quá_kh ích</w>
b ra</w>
L es
N. T.
R ap
lạ_ mặt</w>
d õi</w>
S ắc</w>
cám_ ơn</w>
a j
quý_ vị</w>
Ken ya</w>
Co lu
Không_ khí</w>
nh ớ
h 45</w>
hội_ ngộ</w>
cá _l
i_th ượng</w>
195 3</w>
Wi ki
r ắn_
Bắc_ Hà</w>
Cô _dâu</w>
ư _thế</w>
T ức_
Slova kia</w>
le t_
g ây_dựng</w>
trầ m_tr
6 4
c in
th ẻ_tín_dụng</w>
dàn_ xếp</w>
chiến_ công</w>
u_d ồi</w>
vi_ rút</w>
m e_
11 m</w>
nhiễm_ độc</w>
M ơ</w>
c ro
5 .</w>
th ìa_
định_ mệnh</w>
ti_ vi</w>
Hy e_
Fran ce</w>
24 h</w>
Viện_ kiểm_sát</w>
khuy ên_
Ph ân_t
b itcoin</w>
nh ắm_
Thú_ y</w>
tỏ _tình</w>
N S</w>
ic us</w>
Tiểu_ đoàn</w>
C G</w>
f _
Tam_ Kỳ</w>
Lou is</w>
Volks w
DV D</w>
1/201 6</w>
a_t ình</w>
Hoàng_ hậu</w>
ối_t iếp</w>
hi_ sinh</w>
log y</w>
1 20.000</w>
thờ i_thượng</w>
s son</w>
Đông_ y</w>
logi stics</w>
Báo_ điện_tử</w>
Th ục</w>
b ồng_
truyện_ ngắn</w>
C ải_
P A
Đ ấ
m úc</w>
n ôn_
A BC</w>
Hội_đồng_ nhân_dân</w>
5 /2016</w>
19 h</w>
_thành_ niên</w>
sau_ cùng</w>
10 4</w>
g n
Mai_ Phương</w>
c ap
H iệu</w>
tá i_th
Vinaco ne
lẩn_tr ốn</w>
bao_ bọc</w>
mỹ_ quan</w>
m úi</w>
SD F</w>
y on
Phan_ Đình_
c a_t
so v</w>
thường_ lệ</w>
huy ệt</w>
phù _thuỷ</w>
võ ng</w>
Hàn_ lâm</w>
nam _tính</w>
i_t iểu</w>
S ắc_
10 h</w>
ngành_ hàng</w>
liên_ hợp</w>
ph ia</w>
h ầm_
học_ kỳ</w>
tra u_dồi</w>
v ez</w>
xuống_ nước</w>
ẩn_ n
án_tr eo</w>
kĩ_ năng</w>
bả ng_
X u_hướng</w>
h ăng</w>
ra d</w>
ổ _chức</w>
Ichneum onidae</w>
K i</w>
cổ_ kính</w>
_M in
ối_th úc</w>
Quang_ Huy</w>
Kar nat
Per ez</w>
S ài</w>
tổng_ lượng</w>
Phan_ Anh</w>
Đám_ cưới</w>
27 0</w>
The_ Sun</w>
đ iể
bướ u</w>
th ô_
a_h ét</w>
bộ_ xử_lý</w>
ch_l ãm</w>
gian_ nan</w>
1 16</w>
Thay_ đổi</w>
Thư_ viện</w>
Karnat aka</w>
1. 600</w>
s ở_hữu_trí_tuệ</w>
L iêu_
195 6</w>
liên_t ưởng</w>
d el
c ặp_
bất_ chính</w>
Vu i</w>
Valent ine</w>
th ọ</w>
er b
for mula</w>
8, 5</w>
Nh ạc_
s ti
nhà_ bếp</w>
l ân</w>
v ỡ_
H ạn_
ng .
trình_ chiếu</w>
O zil</w>
seu do
h ối_thúc</w>
Ch uyển_
E ti
Saig on_
ẩ u_đả</w>
Kim_ Anh</w>
6- 3</w>
c en
phóng_ sự</w>
truy_ xuất</w>
K ế</w>
Tôn_ Đức_Thắng</w>
da d</w>
9 /2016</w>
mong_ ước</w>
th ấu_
bo x</w>
điệ n_đàm</w>
Raq qa</w>
_L u
Cơ _chế</w>
xo è</w>
l a_hét</w>
Quân_ đoàn</w>
trọng_ đại</w>
L o_
D a_
Tay lor</w>
TCT D</w>
Bằng_ chứng</w>
Mr .</w>
ph út_
Bo m</w>
on ic</w>
l ac
Med ved
liên_ hoàn</w>
điều_tr a_viên</w>
d ù
chú t_
máy_ bơm</w>
â m_t
V EC</w>
đồ _án</w>
_L âm</w>
Triển_ khai</w>
niên_ đại</w>
Tìm_ kiếm</w>
kh ay</w>
ghen_t uông</w>
Quán_ quân</w>
n er
v iêm_
xo á
Tim e</w>
Ch uyển</w>
nhãn_ mác</w>
kế _nhiệm</w>
me d</w>
s ành</w>
vị _thành_niên</w>
mất_ giá</w>
chống_ chọi</w>
chiến_ sự</w>
chậm_ chạp</w>
ec i
NV CC</w>
giày_ dép</w>
te am</w>
ô i_d
biên_t ập_viên</w>
ông_ già</w>
S wan
trầm_tr ồ</w>
nes s</w>
Blu etooth</w>
Cô_ giáo</w>
P N
Đưa_ Tin</w>
En ri
Alex_ Ferguson</w>
Bra sil</w>
Ying lu
th ưởng_
tr ứng_
bán_ kính</w>
sta tus</w>
Di_ Maria</w>
kh iế
dạy_ dỗ</w>
lị ch_lãm</w>
Côn_ Đảo</w>
sức_ lực</w>
H ad
m on</w>
h ốt_hoảng</w>
194 4</w>
thất_th u</w>
phong_ cảnh</w>
ng_l ẻ</w>
_l í</w>
IP O</w>
R ừng</w>
v ang_
Thom as
m ic
eo_ biển</w>
m ật_th
Mặt_tr ời</w>
v ẻ
G ame</w>
8 /2018</w>
danh_ ca</w>
biểu_ quyết</w>
1/ 10</w>
dao_ kéo</w>
c uốc</w>
2 60</w>
Trần_ Minh_
Map s</w>
nức_ nở</w>
Bắc_ Cực</w>
riê ng_lẻ</w>
8 8
Quốc_ Việt</w>
De p
Thế_ Giới</w>
H inh</w>
tử _
quyết_ đoán</w>
là m_tr
khổ _sở</w>
f lo
Lê_ Lợi</w>
For tu
chiều_ qua</w>
cc i</w>
s á</w>
Ad ri
Thanh_ Sơn</w>
man u
Tú_ Anh</w>
Ch iề
Bảo_hiểm_ xã_hội</w>
195 5</w>
cá t-
đăng_ kí</w>
Diễn_ biến</w>
x ịn</w>
iển_tr ách</w>
4 0-
2, 7</w>
Phản_ ứng</w>
_ giả</w>
et h</w>
Lã nh_
ay a_
sự_ quán</w>
lý _học</w>
bo ard</w>
Khảo_ sát</w>
m_th ường</w>
yo u</w>
m éo</w>
i e_
Bắc_ Từ_Liêm</w>
Mo z
c ul
Petroli mex</w>
Mai_ Phương_Thuý</w>
sơ_ cứu</w>
C ze
Mặt_ Trời</w>
G ửi</w>
V u_
ngày_ sinh</w>
Mỹ_ Đức</w>
i z</w>
nhỏ _t
tr ồng_trọt</w>
R IA</w>
tháo_ chạy</w>
L y_
9 5
khá _giả</w>
L ạnh</w>
tr ổ</w>
tối_ ưu_hoá</w>
Am ster
trăm_ ngàn</w>
meg apixel</w>
ở m</w>
3, 2</w>
ỗ _tay</w>
r ảnh_
th ất</w>
xem_ ra</w>
lạ_l ùng</w>
De f
dâ u_t
ch âm_
re al</w>
Kỳ_ Sơn</w>
ữ ng_tưởng</w>
Pit t</w>
Bra d_
VH TT</w>
de p
M O
kiều_ bào</w>
Po t
M I</w>
194 1</w>
f one</w>
c ội</w>
Trần_ Xuân_
khởi_ nghĩa</w>
phái_ đẹp</w>
Ph ar
nh ẫn_
í u_
al s</w>
khủng_hoảng_ kinh_tế</w>
bas s</w>
hoá_ ra</w>
con_ dấu</w>
i_ đấu</w>
O k
Hàng_ hải</w>
Khó _khăn</w>
mờ i_thầu</w>
pl ay</w>
mã n_tính</w>
Anh_ Dũng</w>
Novos ti</w>
hiện_ giờ</w>
star tup</w>
kiểm_ dịch</w>
h iếu</w>
đánh_ đổi</w>
Hi gh
l ang_
d è
ăn_ kiêng</w>
Xung_ quanh</w>
p as
trung_học_ phổ_thông</w>
Toà _
Elec tr
Th á
Tiêu_ chuẩn</w>
âm_th ần</w>
s ục</w>
săn_ lùng</w>
cấp_ điện</w>
Cảnh_ báo</w>
ba_ lô</w>
P av
Mũ i_
R .</w>
tài_ khoá</w>
Hoà_ bình</w>
nỗ i_
S lam</w>
war d_
giao _thương</w>
l ẫ
thoái_ hoá</w>
Th ực</w>
Đồng_H ới</w>
Cam p
đôi_ chút</w>
ớt_ lờ</w>
Đ ồ</w>
5- 7</w>
ủ a_
195 7</w>
thẳ m</w>
tu ýp</w>
Thiên- Huế</w>
đau_ nhức</w>
bé _nhỏ</w>
is s
Nghĩa_ là</w>
ng ậm</w>
c_tr ực</w>
Sh er
g ạch_
K ế_
Võ_ Nguyên_
B át</w>
ng ũ_
tiêu_h ao</w>
ã o_
ượng_ Thuỷ_văn</w>
th ù_lao</w>
j u
v ỗ_tay</w>
194 2</w>
_tr ù</w>
Thái_ Hoà</w>
điểm_ sàn</w>
hoành_ hành</w>
San_ Francisco</w>
J ac
ối_th oát</w>
h òng</w>
L X</w>
Medved ev</w>
Phương_ Nam</w>
100 m</w>
rử a_t
St or
thiện_ cảm</w>
hã m_
es how</w>
Do anh_thu</w>
đ ố</w>
biến_ áp</w>
Trần_ Đức_
BL HS</w>
Jennif er_
địa_ vị</w>
c õi</w>
0, 0
St an
_ b
F il
Nữ _sinh</w>
1 m</w>
Đ K</w>
niêm_ phong</w>
Vi_ phạm</w>
th iệp</w>
Ta xi</w>
_thập_ đỏ</w>
kì m_
it ar
Hương_ Sơn</w>
_t úi</w>
tiếp_ quản</w>
l ơ
p ul
hiệp_ sĩ</w>
tr óc</w>
hình_ mẫu</w>
ngh ĩ_
bảo_ kê</w>
ng ợp</w>
th ở_d
Lê_ Ngọc_
P res
Đ ẹp</w>
O d
Mo bile</w>
o c</w>
V ai</w>
K iểm</w>
And r
hoá_ giải</w>
P E
s yl
s ự_th
Hen ry</w>
Le xus</w>
J uni
g ặt</w>
B ang</w>
j u</w>
s ảnh</w>
Đ ánh</w>
Me di
2 2%</w>
u_th ành</w>
Wat ch</w>
B TS</w>
K aw
cá _voi</w>
bao_ cao_su</w>
phân_ khối</w>
K ane</w>
ch ổi</w>
x iết</w>
tội_ lỗi</w>
vui_t ươi</w>
Phân_t ích</w>
Xuân_ Mai</w>
Mỹ _L
chồng_ con</w>
thực_ địa</w>
b ùi_
thiếu_ vắng</w>
đ ãng</w>
f ul
v on</w>
kiệt_ sức</w>
qu i
B ook</w>
bá nh_tr
V òng_
E ar
Ho use</w>
x ói_
C our
Yo u</w>
E as
giải_ nghệ</w>
In i
un a</w>
as ti
từ _trường</w>
khiêu_ dâm</w>
Trung_ học_
biết_ đâu</w>
B á</w>
2, 8</w>
m ẩu</w>
D S</w>
Hoa_ Đông</w>
n ách</w>
Sp ar
to v</w>
ê_ giác</w>
Kị ch_
Sầm_ Sơn</w>
l ò_
Chu_ Văn_
R êu</w>
Hit ler</w>
rào_ chắn</w>
e us</w>
C ư_dân</w>
h en</w>
phi m_tài_liệu</w>
17 5</w>
G un
m is</w>
gia_ dụng</w>
we en</w>
pháp_ y</w>
m_t ang</w>
thơ m_
Chic ago</w>
.net .vn</w>
d y_
v ía</w>
y en</w>
m è</w>
Eri c_
Thị _trưởng</w>
h út_
T I</w>
Ngh iêm_
Me tro</w>
Ma c</w>
ướ n</w>
mày_ râu</w>
a lu
8 h</w>
Lo ạt</w>
T ỉ
chân_ váy</w>
t_th ở</w>
qu ận_
khó _lòng</w>
Ma x</w>
nh u_
tự_ động_hoá</w>
Thừa_ Thiên-Huế</w>
1 12</w>
g ộp</w>
TI N</w>
S how</w>
Lợi_ nhuận</w>
HN M</w>
máy_tính_ xách_tay</w>
Ki en
đ ỏ_
xcơ va</w>
F- 16</w>
hội_ hoạ</w>
đặc_ hữu</w>
k y</w>
chuyên_ mục</w>
gó c_
Nói_ chung</w>
tiền_l ệ</w>
che _chắn</w>
Ful l
ik i</w>
gu itar</w>
o x
Gi ggs</w>
viễn_ cảnh</w>
M G</w>
Giám_ khảo</w>
Th ầy_
Nguy ên_t
đại_ chiến</w>
x ù</w>
cá m</w>
bó ng_tối</w>
Công_ lý</w>
đầu_ độc</w>
tiếp_t ay</w>
phyl lum</w>
X P</w>
2 /2017</w>
Hang- seo</w>
1. 400</w>
Quang_ cảnh</w>
s il
Pl at
TH A
tr ận_
Anh_ chàng</w>
f lav
Hi ro
Cam b
K ra
giải_th oát</w>
VĐ QG</w>
Lê_ Đức_
kỳ _tích</w>
Cry st
h ễ</w>
J ap
g ái_
triệ u_hồi</w>
Cố_ vấn</w>
J es
Kh a</w>
L ự
X í_nghiệp</w>
gi ăng</w>
ma t</w>
Wayne_ Rooney</w>
thực_th ụ</w>
at e_
xo ăn</w>
C ook</w>
T G</w>
L ái</w>
Duy_ Tân</w>
V ọng</w>
N in
r ượt</w>
thầ m_
C L</w>
ph ế</w>
th a_
b ưu_chính</w>
tr áng</w>
g on</w>
B ão</w>
te h
pi xel</w>
cấ u_thành</w>
B G
công_ lý</w>
K iến</w>
mờ _nhạt</w>
Quang_ Lê</w>
Th ừa</w>
ti ng_
công_ lao</w>
dưa_ chuột</w>
C ốc</w>
Nghị_ viện</w>
lấy_ làm</w>
hạ nh_
V es
si on</w>
hoàng_ hậu</w>
hy d
v ania</w>
đánh_ ghen</w>
n ốt_
thông_ suốt</w>
Lê_ Quý_
5 G</w>
Huy_ Hoàng</w>
+ 1</w>
áo_ đường</w>
P el
6- 4</w>
Ph ả</w>
L iễu</w>
2, 6</w>
Tr ình</w>
thường_ vụ</w>
Hymen optera</w>
i_th áo_đường</w>
sinh_t ố</w>
Xuất_ khẩu</w>
_v ờ</w>
ne t_
tổ_ ấm</w>
phát_ âm</w>
Có_ mặt</w>
thăm_ quan</w>
ph í
liệu_ pháp</w>
thủ _thuật</w>
ép_ buộc</w>
N à_
Grand_ Slam</w>
hào_ quang</w>
có _hạn</w>
Fab i
n ạc</w>
Thuỳ_ Dương</w>
1/ 6</w>
quốc_ nội</w>
d ù_
giả _vờ</w>
o_d anh</w>
PG S-TS</w>
a_đ á</w>
ốm_ đau</w>
đ ế_chế</w>
khí_t ượng_thuỷ_văn</w>
F id
4- 1</w>
h ad</w>
nh ô</w>
7- 8</w>
H iến_
Ho ằng_
v áy_
ò m_
rung_ động</w>
tr ick</w>
truy_ cứu</w>
D ell</w>
tra_ cứu</w>
k ỉ
bóng_ bàn</w>
chân_ chính</w>
ff e
ưu_ việt</w>
Mar tial</w>
thượng_ nguồn</w>
Mai_ Hương</w>
e_ Wenger</w>
th i_thoảng</w>
cho áng</w>
Màu_ sắc</w>
p ol
cương_ quyết</w>
nặng_ ký</w>
trí _tuệ_nhân_tạo</w>
T iểu</w>
mỹ_ nghệ</w>
đà o_th
lự u</w>
thái_ quá</w>
Angel ina_
re t</w>
vô _l
sở _dĩ</w>
H uyề
ớ m_
Thường_ Tín</w>
Hyund ai</w>
g ro
c õng</w>
Tai_ nạn</w>
an_t áng</w>
ẵ n</w>
khuy nh_
T B-
Tr iết</w>
l d
ch _lý</w>
Viện_ Hàn_lâm</w>
R C</w>
Hal lo
n ặc</w>
x x
David _B
T KV</w>
ah u</w>
Lan_ Anh</w>
ari o</w>
U B</w>
dồn_ dập</w>
Phong_ cách</w>
v .
Alg eria</w>
C anh_
Kh úc</w>
W .</w>
ơ m_
Đăng_ Khoa</w>
cán_ sự</w>
Hồng_ Ngọc</w>
Á_ quân</w>
Hành_ chính</w>
P M</w>
Arsen e_Wenger</w>
m ắ
t eo</w>
D ạ</w>
tổ ng_tài</w>
biết_ bao_nhiêu</w>
Qu ỳ_
cầ u_lông</w>
phá ch</w>
Khí_t ượng_Thuỷ_văn</w>
_h ở</w>
châu_ Mỹ</w>
làm_ quà</w>
Be au
Th ỉnh_thoảng</w>
V nexpress</w>
Lan ka</w>
d i_dân</w>
k ì_
hành_t ây</w>
sty le</w>
ĩ u</w>
è m_
Mari o_
c ard</w>
12 /2015</w>
eg as</w>
Bình_ Sơn</w>
VI DE
nhỏ_t uổi</w>
Y as
B en_
Phạm_ Bình_Minh</w>
k _M
en d</w>
hì nh_th
to ph
Kim_ Chi</w>
an on</w>
S w
chứng_th ực</w>
Amster dam</w>
Steph en_
Vin c
ăng_t iến</w>
Đố i_thoại</w>
C ab
nước_ ngầm</w>
Cos ta_
giải_ mã</w>
VIDE O</w>
Daily mail</w>
Biên_t ập</w>
chuẩn_ xác</w>
Qu ả_th
ng_th uật</w>
ph ức</w>
A G</w>
Tr ị_
r ảnh</w>
M ạ
tuyên_ dương</w>
teh sil</w>
U- 23</w>
h is
xoa_ dịu</w>
29 ,
hoả _t
p ia</w>
on o
r ôn</w>
ho n</w>
v ế</w>
K in
su m_
Hoài_ Anh</w>
4 h</w>
1. 800</w>
Te vez</w>
K w
co_ giật</w>
truyền_ nhiễm</w>
s ải</w>
m ải_
tự _trị</w>
S ợ</w>
đ ế_quốc</w>
Kiểm_ lâm</w>
Điều_ kiện</w>
pen alty</w>
sơ _hở</w>
B Đ</w>
Entertain ment</w>
ng_th ư</w>
hô n_l
Su- 35</w>
nhắn_ nhủ</w>
hôn_l ễ</w>
to u
Quốc_ vương</w>
biên_ độ</w>
w s
d âm_
ngất_ ng
pha_tr ộn</w>
ag o_
I BM</w>
s ùi</w>
Ngô_ Thanh_Vân</w>
p o</w>
tài_ hoa</w>
Di gi
Phi_ Thanh_Vân</w>
k èn</w>
K ro
AD S</w>
Kh ởi</w>
8 /2016</w>
lo ng_
I M</w>
da nh_th
i_t iền</w>
nghiêm_ cấm</w>
4 7
đường_ ray</w>
s ạp</w>
lin k</w>
bảo_t oàn</w>
SD Đ</w>
tiếng_ vang</w>
Vô_ địch</w>
công_t ố</w>
t ặc</w>
4 /2016</w>
An_ Phú</w>
_B ale</w>
B ởi_thế</w>
Bà_Rị a-
3 7,
kh âm_
trung_ niên</w>
Ste ven_
cảm_t ình</w>
Qu ay</w>
s ủa</w>
toà _soạn</w>
Bà_Rịa- Vũng_Tàu</w>
F an
Thuận_ An</w>
xỉ n</w>
Ki a_
h ất</w>
Roll s-
Diễm_ Hương</w>
tam_ giác</w>
ado na</w>
th ợ_
phi_ pháp</w>
Nguyễn_ Bá_
Lê_ Quốc_
lên_ lớp</w>
mu i</w>
3 /2016</w>
3 30</w>
lên_ xuống</w>
Trịnh_ Công_Sơn</w>
cũ_ kỹ</w>
tr al</w>
thần_ kỳ</w>
th ăng_tiến</w>
quý _tộc</w>
n on_
co s</w>
nguy ê
phá c_
nó i_th
The_ Re
phân_t án</w>
Ch ap
tham_ chiếu</w>
kiể ng</w>
i_th ất</w>
C in
Kh ổng_
Võ_Nguyên_ Giáp</w>
bao_ cấp</w>
QL TT</w>
G ọi</w>
Bro wn</w>
bol ero</w>
K ath
co u
enc e_
Hồng_ Vân</w>
tiếp_ sức</w>
LĐ- TB</w>
me tro</w>
Y _học</w>
2 1,
ho a
ì_ xì</w>
đ ỡ_
N O
Tr inh_
m ướt</w>
F .</w>
ết_tr ình</w>
m i_
ng ược_
đ iếu</w>
hoá _thạch</w>
N ét</w>
bình_ an</w>
buông_ lỏng</w>
kết_t ội</w>
Sri_ Lanka</w>
Ngh iêm</w>
Liên_ Chiểu</w>
Thạch_ Thất</w>
Kha i_thác</w>
Cảm_ giác</w>
j o</w>
Al li
ân_ lông</w>
nghệ _s
âm_th ời</w>
triệu_ phú</w>
_l ưới</w>
can_ đảm</w>
toàn_ vẹn</w>
đ ĩ
Americ an_
a u_
kh iển_trách</w>
Cổ_ phiếu</w>
i_th ay</w>
t ậu</w>
t ó
4 6
ch ớp_
tr ữ</w>
12 /201
phái_ viên</w>
John_ Kerry</w>
Cộng_hoà_ Séc</w>
Công_ chúa</w>
S M
càng_ ngày_càng</w>
30 ,
bão_ hoà</w>
Ng oại</w>
th ẳng_
so lo</w>
Thái_ Hà</w>
đ âm_
lạ_ mắt</w>
tái_th iết</w>
rảnh_ rỗi</w>
ch à</w>
Gareth _Bale</w>
K CN
ẫ u_h
O ne
Fi re
độ n</w>
trung_ đoàn</w>
_d u</w>
lỗ i_
ph ớt_lờ</w>
V àng_
đá nh_thức</w>
sống_ còn</w>
pháp_ nhân</w>
Thượng_ đỉnh</w>
Business_ Insider</w>
phá _lưới</w>
tr ắc_nghiệm</w>
Bùi_ Tiến_Dũng</w>
S ố_
_l ạc</w>
Mar adona</w>
biết_ điều</w>
cầ n_s
đậu_ nành</w>
lo_ âu</w>
B y
tr êu</w>
Trường_ Chinh</w>
NN PTNT</w>
Giải_th ích</w>
T ae
_M ạnh</w>
B ad
L ực_
Mai_ Tiến_Dũng</w>
gi ông</w>
nguỵ _trang</w>
t z</w>
ảm_ đạm</w>
D M</w>
tú i_tiền</w>
m ượt</w>
_tr ùng</w>
nhật_ ký</w>
Giấy_ phép</w>
B ọn</w>
H ệ_
đi_ nữa</w>
D a</w>
Suzuk i_
S ư</w>
cần_s a</w>
phụ_ giúp</w>
On e_
Jose ph
mặt_ khác</w>
Res ort</w>
chiếm_ lĩnh</w>
song_ sinh</w>
Vinacone x</w>
rộn_ ràng</w>
_s ức</w>
9 x</w>
Pors che</w>
s úp</w>
Ch im</w>
g an_
xung_ phong</w>
el _S
Lự a_chọn</w>
Th ưởng</w>
khiếm_ khuyết</w>
nhập_ cuộc</w>
Pa ul</w>
Ch ờ</w>
Taylor _S
ka v</w>
Virgi nia</w>
tiếp_ giáp</w>
cất_ giấu</w>
chuyên_ dùng</w>
su l
uyển_ cử</w>
Char lie_
Cử _tri</w>
v ạt</w>
21 h</w>
lăng_ mộ</w>
K TS</w>
do n_
chân_th ật</w>
tu_ bổ</w>
Aston_ Villa</w>
m il
Ro ck
chiếm_ dụng</w>
o o</w>
toàn_ cảnh</w>
l ối_thoát</w>
hạn_ mức</w>
Tây_T ạng</w>
sắ c_th
G ã</w>
K ý_
Wal l</w>
chính_ khách</w>
đơn_ giá</w>
sáng_ suốt</w>
bốc_ lửa</w>
N ền</w>
Angelina_ Jolie</w>
e f
ổ_ cứng</w>
sá o</w>
E sp
B kav</w>
t ụ_
_th ượng</w>
id i</w>
th óc</w>
ăn_ quả</w>
o d</w>
Trần_ Hữu_
ay_t iêm_kích</w>
pha_ chế</w>
Phạm_ Minh_
Bất_ cứ</w>
Cat alan</w>
ph ất</w>
á_ quân</w>
4. 500</w>
Las _V
trứng_ cá</w>
lỗ_ch ân_lông</w>
n_ chu</w>
Chứng_ kiến</w>
óm_ lại</w>
cộng_ sản</w>
D ư</w>
tạp_ hoá</w>
tậ n_th
p ac
săn_ đón</w>
Bình_ luận</w>
ngh am</w>
ch èo_
đột_ kích</w>
thở_d ài</w>
it z</w>
hồ _tiêu</w>
1 1.000</w>
U p
Trung_ Nguyên</w>
Br un
mùi_ vị</w>
Mar tin</w>
C ự_
Q S</w>
Seri es</w>
Làm_ việc</w>
lý _lịch</w>
17 h</w>
cả ng_
Pro jec
R E</w>
New_ Delhi</w>
Hoàng_ Xuân_
triều_ cường</w>
Vào_ khoảng</w>
Hồng_ Sơn</w>
Festiv al_
12 6</w>
t .</w>
Ly on</w>
Phú _M
Lu ân_
am ine</w>
g ỉ</w>
D iện</w>
năm_ xưa</w>
nhấn_ chìm</w>
C ống</w>
_c ười</w>
chỉ n_chu</w>
H il
đ ươ
QĐ ND</w>
da_ màu</w>
AD B</w>
tinh_ xảo</w>
H av
on e_
10 /201
b iếng</w>
T em
_s ổ</w>
Th o</w>
nh ào</w>
ho án</w>
lễ _t
y ad
tố ng_tiền</w>
đeo_ bám</w>
Gia_ Định</w>
m ười_
K ỷ</w>
ch ì
sâu_ bệnh</w>
Washington_ Post</w>
Cze ch</w>
W est
In no
đại_ đoàn_kết</w>
t ê</w>
là m_t
As s
1 20
b li
L i</w>
kho ái_
hạ t_tiêu</w>
L âu</w>
et ta</w>
12 3</w>
s tu
Qualcom m</w>
suy_d inh_dưỡng</w>
Q H
u_đ ạn</w>
tứ c_th
gia_t ộc</w>
_h iếu</w>
M ù
Quang_ Vinh</w>
tươi_ đẹp</w>
Wol f
lã nh_tụ</w>
thuy ết_trình</w>
_t ướng</w>
ar is</w>
Bi z
thầ n_t
bỏ _túi</w>
c z
đan_ xen</w>
T ang_
t ê_giác</w>
Hol land
K os
f lash</w>
thân_ mềm</w>
thảm_ khốc</w>
M ường</w>
Phối_ hợp</w>
thực_ lực</w>
o d
ai t</w>
Leic ester
luân_ phiên</w>
ản_ nhiên</w>
9 7
- 2</w>
tr ời_
gam eshow</w>
Cá _nhân</w>
A e
đ ược_
o _trình</w>
thôi_ việc</w>
l ai_
g ớm</w>
ặ m_
C an_
g lu
đắc_ lực</w>
làm_ khó</w>
hành_ quyết</w>
cá p_
_v ua</w>
đính_ hôn</w>
tr à
đúng_ mức</w>
N úi_
T ab
3, 4</w>
u_l ửa</w>
D Đ</w>
x à</w>
giả_ định</w>
H w
_c úng</w>
Vinash in</w>
mơ _hồ</w>
k ẻ_
hưởng_th ụ</w>
B RT</w>
mu ôn_
Air _
Vik tor
3. 0</w>
3 5,
7 00.000</w>
rau_ muống</w>
Ch iêm_
ăn_ chay</w>
viêm_ nhiễm</w>
Vũ _khí</w>
D ạy</w>
T ưởng_
n ick
O hi
tiêu_ đề</w>
nhập_ siêu</w>
M e</w>
ẫ ng</w>
Tr ứng</w>
dri c</w>
L ạch_
Qu ần_
Hu m
Fal cao</w>
khu ấy</w>
Ngô_ Quyền</w>
Quỳnh_ Lưu</w>
Ấ N</w>
ệ m</w>
ng ùng</w>
nh_th ường</w>
Taylor_S wift</w>
cửa_ kính</w>
đị ch_
ngất_ xỉu</w>
_d iễn</w>
ồng_ lái</w>
X em_
cáp_ quang</w>
qu ân_t
sơ _chế</w>
L ục</w>
Đoàn_ Thị_
có _lý</w>
% -
5 5%</w>
Windows_ Phone</w>
UB KT</w>
ấu_ chốt</w>
Chân_ dung</w>
Ch al
đậu_ xanh</w>
th ạch</w>
K pop</w>
nho_ nhỏ</w>
R a_
Sức_ mạnh</w>
4- 0</w>
Al i_
j a_
thượng_ lưu</w>
P. V.</w>
_G u
gian_ khổ</w>
Ri ver
2 10</w>
lạ_l ẫm</w>
1 :
B ry
con cept</w>
đầu_ óc</w>
trên_ hết</w>
AV G</w>
dị_ vật</w>
am on
v ừng</w>
trú_ ẩn</w>
Bill _G
it ez</w>
thúc_ giục</w>
cây_ xăng</w>
khí_ quyển</w>
Lan_ Hương</w>
ê_ kíp</w>
huyền_ bí</w>
Tr ợ
S chu
H át</w>
kh ăn_
tiề n_lẻ</w>
nhân_ hoá</w>
H A</w>
ược_ dịch</w>
giám_ mục</w>
quận_ huyện</w>
tàn_ bạo</w>
ch enko</w>
nh ĩ</w>
E M</w>
bá i</w>
n ồng</w>
Ch ứ</w>
mu ôn</w>
i .
cấ u_tạo</w>
Ton y_
Lad y_
ngoại_ quốc</w>
all i</w>
Tr ưng_
sát_ hạch</w>
t ột_
Lo ve</w>
áo_t ắm</w>
tài_ lộc</w>
lúa_ gạo</w>
xo ay_
thể_h ình</w>
làm_ vậy</w>
T ạm</w>
thị _lực</w>
đổ i_thay</w>
F ED</w>
Min sk</w>
9 7%</w>
ch ệch</w>
Lad en</w>
l ì_xì</w>
p in
Asi a_
khó c_
Kim_Jong_ Un</w>
thờ _cúng</w>
2 m</w>
S ao_
tệ _hại</w>
T r</w>
ath an_
l ỏ
thai_ phụ</w>
h ươ
ch_l iệt</w>
th ản_nhiên</w>
ng ã_
hoạt_ chất</w>
Khánh_ Ly</w>
định_ kiến</w>
tạo_ lập</w>
ter _
Cẩm_ Phả</w>
W imb
ý t_
kinh_ nguyệt</w>
West_ Bro
đá i_tháo_đường</w>
Bạch_ Dương</w>
C oun
ẻ_t iền</w>
Đ ứa</w>
Hoà _Min
Phú_L ộc</w>
lự u_đạn</w>
Is land</w>
mặc_ cảm</w>
d inh</w>
ng_tr ắng</w>
ag an</w>
Ch ơi</w>
v ần</w>
Khánh_ Thi</w>
He e</w>
nghị ch_
Công_ nghệ_thông_tin</w>
Gold en_
n ám</w>
dân_ chơi</w>
Ch ữa</w>
cây_ ăn_quả</w>
tú c_trực</w>
thể _
trường_ lớp</w>
S ig
5 1%</w>
ng ư
kị ch_liệt</w>
Ng ã</w>
lo v</w>
an da</w>
re n_
tườ ng_thuật</w>
b ao
ph i_thường</w>
nước_ rút</w>
bre ak</w>
eb er</w>
re y</w>
Kh o</w>
_h è</w>
Thượng_ nghị_sĩ</w>
I I
hoảng_ hốt</w>
Đại_ lộ</w>
T ả_
10 9</w>
Đông_ Bắc_
_s ử</w>
cổ_ xưa</w>
Hồ_ Quang</w>
r ẻ_tiền</w>
Carlo s_
Leb anon</w>
n_l út</w>
Gom ez</w>
trực_ diện</w>
o_l ộn</w>
bấy_ nhiêu</w>
K D</w>
toàn_ quyền</w>
hồi_ sức</w>
C ộng</w>
Ọ C</w>
d ẻ</w>
ch ói</w>
bậ n_tâm</w>
kiên_ định</w>
2 1%</w>
í ch_l
id u
Pl ay</w>
Tele com</w>
đ ô_
tan_ rã</w>
Ini esta</w>
Thanh_ Chương</w>
Việt_ Trì</w>
GT GT</w>
b ack</w>
đại_tr à</w>
sổ _sách</w>
ng ách</w>
Wimb le
r ô</w>
Gi ấc</w>
Ash ley_
S ung</w>
b r</w>
3 /4</w>
đ ỗi</w>
Tân_ Hiệp</w>
xe_l ăn</w>
n em</w>
Lo c
b rid</w>
nh â
inh_ học</w>
n o_
San ta_
en -
Tr ở</w>
Quân_ chủng</w>
Hallo ween</w>
ph ơi_
Ki -
TH X</w>
M in</w>
C ười</w>
V E</w>
ặ n_
v ũng</w>
ma gi
Thường_ xuyên</w>
Tu nis
bao_t ải</w>
d ay_
th ương_th
treo_ cổ</w>
Hoà_Min zy</w>
p e_
Thực_ sự</w>
6 7
công_ năng</w>
Rober to_
ký_t úc_xá</w>
b ởi_vậy</w>
4 K</w>
H iển_
194 8</w>
ad da
11/201 8</w>
nh_tr ọng</w>
trữ _lượng</w>
3, 6</w>
Al b
c ini</w>
rửa_t iền</w>
Hoàng_ Thuỳ_Linh</w>
Đo an_
điều_tr ần</w>
Mar t</w>
h ổi</w>
viên_ mãn</w>
ự _nhiên</w>
đ u</w>
pe ar
J im
At lan
Hoá _học</w>
v ệt</w>
er y</w>
ngo ãn</w>
Tr ao</w>
Mi chi
F an</w>
đi_ đôi</w>
Đại_ Dương</w>
13 .000</w>
Tuy_ Hoà</w>
co tt</w>
ch ăng_
đả o_lộn</w>
_l ửng</w>
hùng_ mạnh</w>
v ỗ</w>
Nh ự
ell a_
it er</w>
Hiệ u_
P on
5 3
Phần_ mềm</w>
S oo
Rolls- Royce</w>
Ph ụng_
bắt_ nạt</w>
Lat inh</w>
t ức_t
AM A</w>
truy _thu</w>
Ry an_
H em
một_ không_
kết_ bạn</w>
một_không_ hai</w>
tháng_ ngày</w>
bản_ vẽ</w>
X a
ngh ĩnh</w>
khắc_ hoạ</w>
Rom e</w>
c- xin</w>
đá m_tang</w>
thân_ phận</w>
Kinh_ nghiệm</w>
d ạt</w>
củ _cải</w>
co s
có_ một_không_hai</w>
ai r</w>
y an
Bo li
en_ Niê</w>
cận_ kề</w>
ro u
Đ ẫy</w>
C ore</w>
D un
U ng_thư</w>
C ur
tại_ ngoại</w>
nổi_d anh</w>
Ocean Bank</w>
tố _chất</w>
con om
u ta</w>
thành_th ạo</w>
Ngũ _H
bạ ch
trọng_ yếu</w>
n ấc</w>
i_th ời</w>
v ãi</w>
nh ạt_
194 3</w>
nh ượng_
CA Q</w>
M ở_
đường_ biển</w>
phóng_ khoáng</w>
Bá n_
truy_ quét</w>
Ph ân</w>
tình_ ái</w>
Lu c
Car ter</w>
x í_nghiệp</w>
nh ối</w>
phong_ bì</w>
The_Vo ice</w>
chí nh_trường</w>
er _L
Gi úp</w>
đa u_thương</w>
suy _s
kh e
S MS</w>
ngoan_ ngoãn</w>
lông_ mày</w>
từ_ khoá</w>
Â m</w>
ili con</w>
v ạ
xét_ duyệt</w>
n ôi</w>
điện_ máy</w>
nguyên_ chất</w>
Thất_ bại</w>
Penn syl
kết_ nạp</w>
o is</w>
nh_th ự</w>
Holland e</w>
ng_l ẻo</w>
d ũng</w>
10 7</w>
Tuổi_ Trẻ</w>
ra do</w>
lỗ i_thời</w>
võ _
lé n_lút</w>
lỡ _cơ</w>
Col e</w>
ng ửi</w>
ưa_ nay</w>
í ch
201 3-
C ắt</w>
quá _sức</w>
Net any
Hợ p_tác_xã</w>
h iên</w>
chơi_ đùa</w>
g ắp</w>
R ay
tr ách_
24 /7</w>
Nico las
ra in</w>
K ri
thị _sát</w>
u_đ uối</w>
_ng ừ</w>
SP L</w>
r áo_
H ằng_
ý_ nghĩ</w>
4 9
nh ung</w>
ng_tr ại</w>
23 %</w>
tươ i_trẻ</w>
: 30</w>
tham_ luận</w>
ch ội</w>
Thanh_ Lam</w>
tr ơ
đại_ sứ_quán</w>
a_L ò</w>
TT- TT</w>
Độc_ lập</w>
hạt_ nhân_hoá</w>
TĐ C</w>
ng ỡ</w>
khí _tài</w>
Fer din
a nh
r ình_
v u</w>
19 20</w>
g en_
Viet jet</w>
si p
kinh_ đô</w>
vàng_ bạc</w>
khủng_ long</w>
bàn_ luận</w>
lỏ ng_lẻo</w>
c u</w>
n ặn</w>
Cla u
t óm</w>
ar o</w>
Cử a_Lò</w>
t_tr uyện</w>
tr ơ</w>
al- Assad</w>
mật_th iết</w>
ơ _v
Je an-
Capit al</w>
Lục_ quân</w>
Motor ola</w>
Thanh_ Thuỷ</w>
Hoà_L ạc</w>
phế_ quản</w>
L áng</w>
Ngày_ xưa</w>
cơ_quan_ chuyên_môn</w>
t ỵ</w>
in i_
V ĩ</w>
7 h</w>
S 7</w>
Trung_ Hiếu</w>
L áng_
Dail y</w>
am i
ĐT DĐ</w>
thực_ nghiệm</w>
Netany ahu</w>
tĩnh_ mạch</w>
Ch in
sh ire</w>
Ku w
tu ổi_đời</w>
G ái</w>
cầu_ hoá</w>
Leicester _City</w>
địa_ ngục</w>
Tri ch
Quốc_ Khánh</w>
15 5</w>
tr iển</w>
đường_ vành_đai</w>
PL O</w>
s ảy</w>
Ư Ờ
Quảng_ Châu</w>
Glo bal
n_đ ất</w>
Z h
18 .000</w>
6 5
Anh_ em</w>
w on
Hải_ Nam</w>
đương_ đầu</w>
ar do</w>
nói_th ẳng</w>
Las_V egas</w>
đương_ nhiệm</w>
ức_ nhối</w>
phá_ bỏ</w>
S ai_
Ohi o</w>
v ụt</w>
QL 1</w>
t uột</w>
m at
9 81</w>
cộ m</w>
ẩn_ chứa</w>
n_t ác_
Big _
Wimble don</w>
H ass
ng ô
log ger</w>
Tỷ_ phú</w>
chuẩn_ hoá</w>
giằng_ co</w>
_nh ân_
K ol
t s_
L ê
xe_ cơ_giới</w>
IC A</w>
không_t ưởng</w>
UB ND
ngày_ ngày</w>
kháng_ cự</w>
Tr uy
David _Mo
N us
nh ích</w>
ill erson</w>
Ben j
J in</w>
A ve
THA AD</w>
ac if
T ịnh</w>
Ng ôn_
an e_
yế u_đuối</w>
Lê_ Duẩn</w>
t iễn</w>
n ối_tiếp</w>
Mỹ _nhân</w>
sinh_ đôi</w>
l ụ
R ica</w>
Lan_ Phương</w>
T D</w>
ch er
i_d ẳng</w>
xây_dựng_ cơ_bản</w>
- a</w>
Đại_ Việt</w>
CN C</w>
HOÀ NG</w>
in o_
Đinh_ Thị_
kẻ_ gian</w>
ổ _tài</w>
Minh_ Béo</w>
Vit amin_
Bảo_ hiểm</w>
chăng_ nữa</w>
động_ cơ_
đường_ huyết</w>
quá _c
Fo x
Hạn_ chế</w>
ag e_
cá_ biệt</w>
Táo_ quân</w>
m and
Nguyễn_ Tất_
1. 100</w>
phong_ kiến</w>
nhân_t ình</w>
Ầ N</w>
Nộ i_thất</w>
B ê</w>
Á i</w>
phô _diễn</w>
B ột</w>
B VTV</w>
ck -
Đặc_ điểm</w>
thắt_ lưng</w>
n ức</w>
adda fi</w>
B lan
Tr ái_tim</w>
Ng ọn</w>
e ng
thí nh_
Đ ám</w>
G 20</w>
10 6</w>
nhượng_ bộ</w>
Bảo_ Châu</w>
ber t</w>
g ạ
tôm_ hùm</w>
X T</w>
Ph an
dự_t uyển</w>
wi ch</w>
học_ vấn</w>
song_ hành</w>
chật_ chội</w>
Christi an_
L ãng</w>
ẻ n</w>
i_t áng</w>
M aya</w>
h úc</w>
wit h</w>
bất_ đắc_
t le_
F O
gi án</w>
cầm_ cố</w>
R P</w>
vàng_ mã</w>
Mar se
Nob el</w>
Ch ú_
không_ lưu</w>
tuy ến_
4 .</w>
Tổng_ biên_tập</w>
tự_t i</w>
vô_ giá</w>
da i_dẳng</w>
Man cini</w>
ượt_ mà</w>
Anthon y_
David_Mo yes</w>
hoạ i_tử</w>
T U</w>
Cẩm_ Xuyên</w>
S now
W on
1 11</w>
ch ướng_
CT -
ĐH QG</w>
Đảm_ bảo</w>
ì _th
Trợ _lý</w>
Mo bil
ng ồ
Star _
Pennsyl vania</w>
G I
el _B
Tunis ia</w>
s ò</w>
khẩu_ phần</w>
8 00
hoà_ mình</w>
ph i_t
Đ âu</w>
đồng_ nhất</w>
thao_t úng</w>
H i_
hiểm_ nghèo</w>
N ak
giá o_trình</w>
ch ối_
giúp_ ích</w>
Xper ia</w>
d in</w>
m ượt_mà</w>
4 9%</w>
n_đ ắp</w>
hợ p_th
câ u_thơ</w>
TH ANH</w>
suy_s ụp</w>
or _
bom_ mìn</w>
S as
c ú
th a_h
ng_tr ời</w>
Mar cel
xa_ xưa</w>
Đ SPL</w>
nghỉ _hè</w>
rộng_ mở</w>
t ắm_
Hoá_ ra</w>
nh ớt</w>
him a</w>
thiế u_t
_h ưởng</w>
Bích_ Ngọc</w>
Ì NH</w>
lan_ can</w>
nghị_ sự</w>
ích_ kỷ</w>
Bill_G ates</w>
ghê_ gớm</w>
tách_ biệt</w>
lãng_ quên</w>
Costa_ Rica</w>
chuyên_ chở</w>
_th ác</w>
1. 5</w>
k en</w>
TT- BTC</w>
Sa f
hạ _thuỷ</w>
a_đ ẻ</w>
St y
Brad_ Pitt</w>
m ồng</w>
Phương_ Mai</w>
trữ _tình</w>
B ưu_chính</w>
lâm_ sản</w>
ă ng-
ngộ_ nghĩnh</w>
v iệt_
An_ Bình</w>
l íu</w>
Dự_ đoán</w>
thiê n_th
Nguyễn_ Đăng_
Ng ạn</w>
xe_ hoa</w>
say_ sưa</w>
Ham as</w>
S 8</w>
Thu ần</w>
thụ _hưởng</w>
ma i_táng</w>
Tài_ sản</w>
bò _sữa</w>
tuần_ hành</w>
Bagh dad</w>
ng_tr ẻo</w>
ăn_th eo</w>
k ềnh</w>
ND ĐT</w>
mư a_đá</w>
x ích_
i_tr anh</w>
X L</w>
T ích</w>
thụ_ động</w>
C hàm</w>
Ch ấn</w>
Đối_ ngoại</w>
CL Đ</w>
Đ á_
il y</w>
bằng_ sáng_chế</w>
s òng</w>
B ố_
máy_b ay_tiêm_kích</w>
f ri
gi o</w>
D rag
Kh ang_
ần_ kinh</w>
Yên_ Tử</w>
lời_ giải</w>
ực_t ức</w>
14 .000</w>
h ốc</w>
Tân_ Hoa</w>
chú _thích</w>
một_ mực</w>
te ch</w>
cố m</w>
mê_ hoặc</w>
tàu_ biển</w>
Th áo</w>
khô n_l
An_ Dương</w>
Tham_ mưu_trưởng</w>
4 3
L L
nhà_tr ẻ</w>
l ay_
Thảo_ Nguyên</w>
Nhân_ Dân</w>
W om
đa_dạng_ sinh_học</w>
o th
Qu y</w>
thôi_th úc</w>
gian_ dối</w>
m ọng</w>
B is
đ ì
id aceae</w>
e di
b ợ</w>
tụ_ điểm</w>
o an_
pho to
CM ND</w>
Chăm_ sóc</w>
6- 2</w>
K CB</w>
v. v</w>
Kim_ Dung</w>
chất_ lỏng</w>
Trương_ Văn_
L ập_
D ay</w>
Kenne dy</w>
Thống_ nhất</w>
b ùa</w>
le -
tổng_t uyển_cử</w>
th ước_
bóng_ đèn</w>
Hì nh_thức</w>
tiểu_ phẩm</w>
bất_ công</w>
b ịch</w>
hậu_ môn</w>
k u</w>
I stan
ig er</w>
tiện_ dụng</w>
L ỗi</w>
as tro</w>
5- 10</w>
t ăm</w>
Bi eber</w>
trục_ vớt</w>
Tương_ lai</w>
bu ồng_lái</w>
dân_ dã</w>
nợ_ đọng</w>
trùng_ hợp</w>
g a_
Xiao mi</w>
Ng ũ_
Ta e_
nguyê n_thủ</w>
sử _học</w>
Hoàng_ Thuỳ</w>
Bá n_đảo</w>
cướp_ biển</w>
Nhà_ hàng</w>
Tiế n_sỹ</w>
thú_ vui</w>
ức_ hoá</w>
Mon t
quả_th ực</w>
St and
V iêm</w>
Em manu
Ch ăn_
la -
H as
m ải</w>
ênh_ vực</w>
Bảo_ Ngọc</w>
s ing
S am</w>
chuyể n_tải</w>
tr ổ_tài</w>
L os
lãnh_ hải</w>
h ân_
G ang
tr on</w>
Bắc_ Trung_Bộ</w>
ẫu_h ứng</w>
Shar ap
Huyề n_thoại</w>
N P
6 6
Tr ầm_
I .
sức_ mua</w>
qu ăng</w>
bộ _tộc</w>
1 kg</w>
Tài_ năng</w>
Mo dric</w>
cá_h ồi</w>
P ay
n_th ổi</w>
15 h</w>
g ang</w>
S ci
M i_
u li
Y ang</w>
tỉnh_ lộ</w>
Hoàng_ Sơn</w>
Inter net_
Jae- in</w>
Đ an</w>
s tre
Hot line</w>
hì nh_tr
Quan_ chức</w>
u arez</w>
C ỏ</w>
UP Co
A TP</w>
Quy _trình</w>
dâu_t ây</w>
Ph ạt</w>
Hoa_ Lư</w>
T ượng</w>
o vich</w>
N ăng</w>
tr úc</w>
_M c
J ar
Off ice</w>
Pet er_
Kết_ hợp</w>
tương_ phản</w>
dấ n_thân</w>
g ầy_
1/ 7</w>
iế ng_
hoà_ quyện</w>
cất_ giữ</w>
Đ inh</w>
7 5
ẹ t_thở</w>
hành_ hương</w>
t ồi</w>
8 50</w>
F A
Nh ã</w>
ng_ sốt</w>
giai_ cấp</w>
T ĩnh_
nhà_ bán_lẻ</w>
thương_t iếc</w>
tàn_t ật</w>
ul t</w>
l ở
sá p</w>
vu n_đắp</w>
con_ giống</w>
to m</w>
nền_ móng</w>
Peter sburg</w>
Tech combank</w>
ráo_ riết</w>
cây_ bút</w>
th ượng_t
B ính</w>
De ir
E N</w>
ic i
ống_tr ả</w>
hư u_trí</w>
máy_ in</w>
tạp_ chất</w>
Wal l_S
R an
b ậy</w>
nhạt_ nh
đồ n_thổi</w>
Tuy ên_truyền</w>
Nguyễn_ Viết_
Gri ez
s ớm_
Thanh_ Hương</w>
G err
or s</w>
in su
194 9</w>
c_th ang</w>
thẳng_ đứng</w>
phản_ bác</w>
èn_ ép</w>
đậm_ nét</w>
R i</w>
sa s</w>
H àm</w>
N an
Ch anh</w>
Ar men
công_ kích</w>
điể m_t
1, 9</w>
si a_
m ờ_
Dân_ Trí</w>
Th uyết</w>
19 %</w>
ch ống_trả</w>
Khu ất_
Lin d
r ăng_
e o
S ak
Li fe</w>
khóc_ lóc</w>
nhắm_ mắt</w>
2. 5
D inh</w>
y_tr uyền</w>
N A
mời_ gọi</w>
tổ_ quốc</w>
x uy
Th ằng</w>
et z</w>
Sharap ova</w>
_h uyết</w>
Nh o_
b ênh_vực</w>
NS A</w>
á_ hoả</w>
Hy un</w>
Cen ter</w>
_h ởi</w>
Va i_trò</w>
GĐ VN</w>
khôn_l ường</w>
al _S
luân_ lưu</w>
Por to</w>
trị _liệu</w>
M ạc</w>
bán_ buôn</w>
nhật_ báo</w>
Tính_ năng</w>
liên_ danh</w>
ọc_ nhằn</w>
ti ca</w>
12 7</w>
L ễ_
F- 22</w>
ch èn_ép</w>
S et
oo m</w>
Cà_ phê</w>
C ăng_thẳng</w>
Fran co
H ez
mệnh_ lệnh</w>
H id
c .</w>
kiế m_
ng_th ưởng</w>
1 14</w>
niêm_ mạc</w>
nh ị</w>
sơ _s
Willi am</w>
đ êm_
Ướ c_
C ạnh_tranh</w>
tha nh_t
tur es</w>
Lu is_S
đảo_ ngược</w>
mad e</w>
24 /2</w>
Ca iro</w>
l õm</w>
nguyên_ mẫu</w>
Gab ri
Gr and
tham_ ô</w>
quân_ số</w>
10 /2015</w>
acif ic</w>
phi_ vụ</w>
ri e</w>
10 /10</w>
bị _hại</w>
Ch ụp</w>
Giám_ mục</w>
Griez mann</w>
khâm_ phục</w>
d ia</w>
us en</w>
Đ èo</w>
0 3
ab y</w>
Micha el</w>
lâ y_truyền</w>
Kuw ait</w>
w oo
Yên_ Thành</w>
F 1</w>
từ_ ngữ</w>
9 9,
phá _thai</w>
n_l ồng</w>
c ụ_
ch ớ</w>
ph ó
u k</w>
Mỹ_ Tho</w>
m p
Mở _rộng</w>
diễ n_t
m u</w>
_h ầu</w>
201 4-
bu ồ
tung_ lưới</w>
H I
Gre en
M ậu</w>
Ấ n_tượng</w>
Th uật</w>
l âm_thời</w>
bà ng_
Khánh_ Linh</w>
Z imb
H igu
Quang_ Dũng</w>
2 12</w>
hoà_ nhạc</w>
sto ck</w>
quả_th ật</w>
2 25</w>
Chris toph
vắ c-xin</w>
9 6%</w>
on i</w>
S ĩ_
Ô NG</w>
G o</w>
cơ_quan_ hành_chính</w>
ca f
Tr ưởng_
qu e_
Khu ôn_
Danh_ mục</w>
xoá _sổ</w>
B iên_bản</w>
nh ạ
chi_ cục</w>
tạm_ biệt</w>
Som alia</w>
bộ _lạc</w>
c ur
chu ng_thuỷ</w>
nu ôi_
hồ _hởi</w>
G 7</w>
Vin pear
tướng_ lĩnh</w>
Sala h</w>
nhà_ sàn</w>
B iể
Phạm_ Xuân_
đau_ buồn</w>
lớn_t iếng</w>
Pe p</w>
toàn_ cầu_hoá</w>
n íu</w>
cây_ gỗ</w>
r ê</w>
Nu ôi</w>
No va
L TE</w>
Tu ệ</w>
đào_ hoa</w>
WE F</w>
a tra</w>
D ĩ_
Nguyễn_ Thái_
cán_ cân</w>
t ảo</w>
danh_th ắng</w>
gay_ cấn</w>
t_t oán</w>
s ặc_s
col ate</w>
L au
t te</w>
tr op
tự _d
Chú_ ý</w>
p end
M ẹo</w>
F O</w>
B ran
Chung_ cư</w>
chiết_ xuất</w>
V S
ph ượng</w>
Thế_vận_ hội</w>
Ho ng
ph ai</w>
ng ầu</w>
16 h</w>
dính_ líu</w>
K un
Hou thi</w>
T in
nh ức_nhối</w>
11/ 9</w>
Al l
xe_t ay</w>
cá_ch ép</w>
Gru zia</w>
b _
u ần</w>
L Ê
Đại_ gia</w>
K ể_cả</w>
Tr anh_
ki m_t
ru m</w>
Thành_ phần</w>
sáng_ mai</w>
M ùa_
ol e</w>
b ô
giúp_ sức</w>
Đất_ nước</w>
nghiên_cứu_ sinh</w>
Đ ế_quốc</w>
no m</w>
giao_ lộ</w>
sá nh_
Ro bin_
6- 1</w>
giảm_ nghèo</w>
đói_ giảm_nghèo</w>
Hạ_ Vi</w>
xử _lí</w>
A ki
ầm_ ĩ</w>
thư_ điện_tử</w>
trung_học_ cơ_sở</w>
24/ 24</w>
hoàng_ hôn</w>
es a_
re a</w>
Zimb ab
Nor th
do nia</w>
Ch iêu</w>
thừa_ hưởng</w>
thợ _săn</w>
Ng ài</w>
Lo p
y p
ương_tr ình_
nh ạc_sỹ</w>
RO N</w>
Tràng_ An</w>
Phạm_ Hồng_
um a</w>
Mar k</w>
mel idae</w>
CNV CLĐ</w>
v én</w>
20 50</w>
Hez bol
Th ám</w>
ghen_t ị</w>
Chryso melidae</w>
l ồ
v ảy</w>
Nhà _sản_xuất</w>
R A
2, 1</w>
thị _trưởng</w>
thô _sơ</w>
giám_ hiệu</w>
Mac ron</w>
Ninh_ Kiều</w>
phút_ giây</w>
2. 7
22 h</w>
Ch ẳng_
Bộ_ phận</w>
n .com.vn</w>
lơ _lửng</w>
uố c_
ngo ại_trưởng</w>
V ạn</w>
z u
linh_ mục</w>
mê_ mẩn</w>
tận_t ay</w>
nối_ liền</w>
F r
ph èn</w>
Đa_ phần</w>
thiên_t ài</w>
tr ưng</w>
To wn</w>
_th ường</w>
mạ n_tính</w>
ên_t ạc</w>
M ay_
Ki ng
Can on</w>
khở i_tranh</w>
xo ang</w>
_tr ẻ</w>
Steve_ Jobs</w>
ả _h
amp ard</w>
chung_ chung</w>
cá _ngừ</w>
nữ _thần</w>
T ận_
quá_c ố</w>
bất_đắc_ dĩ</w>
bóng_ đá
2 /2018</w>
_tr uyện</w>
có_ giá</w>
mou th</w>
Gon z
Chữ _thập_đỏ</w>
Ă n_
M H</w>
Gerr ard</w>
Bằng_ Kiều</w>
nóng_ hổi</w>
Zimbab we</w>
Tiến_ Minh</w>
m ấu_chốt</w>
25 0
Huỳnh_ Thị_
toà n_thắng</w>
24 %</w>
c ôn</w>
cổ _h
hợp_ kim</w>
12 h</w>
tinh_ hoàn</w>
D T</w>
qu ây</w>
go v
Ch uối</w>
qua_ ngày</w>
Phan_Thanh_ Hùng</w>
il _
Ra j
Fernand o_
sinh_ nở</w>
định_ danh</w>
thu c
phi_ đội</w>
t ép</w>
thẳng_th ừng</w>
tầm_ vóc</w>
BS T</w>
TH ADS</w>
H eli
án_ phục</w>
Bah rain</w>
Hoàng_ Minh</w>
siêu_th anh</w>
Ki ng_
n_tr i</w>
Tài_ liệu</w>
Ch ạp</w>
khiêu_ vũ</w>
đ iêu_l
I n_
Lu is_
19 39</w>
Fo x</w>
ăng_t ay</w>
ôn_ hoà</w>
el s</w>
người_ bị_hại</w>
ra_ hiệu</w>
Gr am
đấ ng</w>
tinh_ gọn</w>
Thanh_ Oai</w>
tờ _rơi</w>
Sam u
B óng</w>
cồng_ kềnh</w>
_d ạng</w>
ng õ
g ỏi</w>
Armen ia</w>
B i_
ir i</w>
Phụ _huynh</w>
6 00
nh ấc</w>
Cad n.com.vn</w>
m ỏng_
C I
re ra</w>
bạ ch_t
x uyến</w>
tr àng</w>
C ổng_
ch uột_
TA SS</w>
1 17</w>
b ói</w>
IS O</w>
ca_t ừ</w>
4 4
16 .000</w>
Ph ái_
ké n</w>
aw i</w>
bất_t ận</w>
H ệ</w>
Â n_
Victor ia_
ảng_ khoái</w>
em an</w>
quản_ lí</w>
th uyết</w>
tà u_t
nh_t ình</w>
phủ_ điện_tử</w>
m ập_
G ames</w>
lives tream</w>
Y ế
os to
hội_ đồng_
Tìm_ hiểu</w>
thị _hiếu</w>
[...]
